{
  "version": "1.0",
  "truncation": {
    "direction": "Right",
    "max_length": 64,
    "strategy": "LongestFirst",
    "stride": 0
  },
  "padding": {
    "strategy": {
      "Fixed": 64
    },
    "direction": "Right",
    "pad_to_multiple_of": null,
    "pad_id": 1,
    "pad_type_id": 0,
    "pad_token": "[PAD]"
  },
  "added_tokens": [
    {
      "id": 0,
      "content": "[UNK]",
      "single_word": false,
      "lstrip": false,
      "rstrip": false,
      "normalized": false,
      "special": true
    },
    {
      "id": 1,
      "content": "[PAD]",
      "single_word": false,
      "lstrip": false,
      "rstrip": false,
      "normalized": false,
      "special": true
    },
    {
      "id": 2,
      "content": "[CLS]",
      "single_word": false,
      "lstrip": false,
      "rstrip": false,
      "normalized": false,
      "special": true
    },
    {
      "id": 3,
      "content": "[SEP]",
      "single_word": false,
      "lstrip": false,
      "rstrip": false,
      "normalized": false,
      "special": true
    },
    {
      "id": 4,
      "content": "[MASK]",
      "single_word": false,
      "lstrip": false,
      "rstrip": false,
      "normalized": false,
      "special": true
    }
  ],
  "normalizer": null,
  "pre_tokenizer": {
    "type": "Whitespace"
  },
  "post_processor": null,
  "decoder": null,
  "model": {
    "type": "BPE",
    "dropout": null,
    "unk_token": null,
    "continuing_subword_prefix": null,
    "end_of_word_suffix": null,
    "fuse_unk": false,
    "byte_fallback": false,
    "ignore_merges": false,
    "vocab": {
      "[UNK]": 0,
      "[PAD]": 1,
      "[CLS]": 2,
      "[SEP]": 3,
      "[MASK]": 4,
      "$": 5,
      "%": 6,
      "*": 7,
      ".": 8,
      "0": 9,
      "1": 10,
      "2": 11,
      "3": 12,
      "4": 13,
      "5": 14,
      "6": 15,
      "7": 16,
      "8": 17,
      "9": 18,
      "=": 19,
      "?": 20,
      "@": 21,
      "_": 22,
      "`": 23,
      "{": 24,
      "ං": 25,
      "ඃ": 26,
      "අ": 27,
      "ආ": 28,
      "ඇ": 29,
      "ඈ": 30,
      "ඉ": 31,
      "ඊ": 32,
      "උ": 33,
      "ඌ": 34,
      "ඍ": 35,
      "එ": 36,
      "ඒ": 37,
      "ඓ": 38,
      "ඔ": 39,
      "ඕ": 40,
      "ඖ": 41,
      "ක": 42,
      "ඛ": 43,
      "ග": 44,
      "ඝ": 45,
      "ඞ": 46,
      "ඟ": 47,
      "ච": 48,
      "ඡ": 49,
      "ජ": 50,
      "ඣ": 51,
      "ඤ": 52,
      "ඥ": 53,
      "ඦ": 54,
      "ට": 55,
      "ඨ": 56,
      "ඩ": 57,
      "ඪ": 58,
      "ණ": 59,
      "ඬ": 60,
      "ත": 61,
      "ථ": 62,
      "ද": 63,
      "ධ": 64,
      "න": 65,
      "ඳ": 66,
      "ප": 67,
      "ඵ": 68,
      "බ": 69,
      "භ": 70,
      "ම": 71,
      "ඹ": 72,
      "ය": 73,
      "ර": 74,
      "ල": 75,
      "ව": 76,
      "ශ": 77,
      "ෂ": 78,
      "ස": 79,
      "හ": 80,
      "ළ": 81,
      "ෆ": 82,
      "්": 83,
      "ා": 84,
      "ැ": 85,
      "ෑ": 86,
      "ි": 87,
      "ී": 88,
      "ු": 89,
      "ූ": 90,
      "ෘ": 91,
      "ෙ": 92,
      "ේ": 93,
      "ෛ": 94,
      "ො": 95,
      "ෝ": 96,
      "ෞ": 97,
      "ෟ": 98,
      "෴": 99,
      "​": 100,
      "‌": 101,
      "‍": 102,
      "‘": 103,
      "’": 104,
      "“": 105,
      "”": 106,
      "…": 107,
      "﻿": 108,
      "න්": 109,
      "ිය": 110,
      "න්න": 111,
      "ත්": 112,
      "ක්": 113,
      "යි": 114,
      "වා": 115,
      "..": 116,
      "ෙන": 117,
      "ම්": 118,
      "ුව": 119,
      "කර": 120,
      "ලා": 121,
      "ස්": 122,
      "ති": 123,
      "නි": 124,
      "ල්": 125,
      "වි": 126,
      "මේ": 127,
      "ාව": 128,
      "කිය": 129,
      "ගේ": 130,
      "රි": 131,
      "හි": 132,
      "තු": 133,
      "නැ": 134,
      "හැ": 135,
      "පි": 136,
      "න්නේ": 137,
      "වෙ": 138,
      "වැ": 139,
      "මි": 140,
      "සි": 141,
      "දු": 142,
      "පු": 143,
      "පා": 144,
      "ෙන්": 145,
      "කො": 146,
      "රු": 147,
      "තිය": 148,
      "මා": 149,
      "කා": 150,
      "ලි": 151,
      "එක": 152,
      "දෙ": 153,
      "කි": 154,
      "නා": 155,
      "දි": 156,
      "මු": 157,
      "රට": 158,
      "හො": 159,
      "සු": 160,
      "ර්": 161,
      "වු": 162,
      "යක්": 163,
      "මෙ": 164,
      "ද්": 165,
      "යා": 166,
      "නේ": 167,
      "ප්": 168,
      "ත්ත": 169,
      "කු": 170,
      "දා": 171,
      "නම්": 172,
      "දැ": 173,
      "සා": 174,
      "ීම": 175,
      "වෙන": 176,
      "නවා": 177,
      "අප": 178,
      "නො": 179,
      "තා": 180,
      "න්ට": 181,
      "තර": 182,
      "දේ": 183,
      "කට": 184,
      "වල": 185,
      "වැඩ": 186,
      "වත්": 187,
      "ටි": 188,
      "ල්ල": 189,
      "ෙක්": 190,
      "ගන්න": 191,
      "ගැ": 192,
      "යට": 193,
      "රා": 194,
      "ගෙ": 195,
      "හෙ": 196,
      "ගෙන": 197,
      "හා": 198,
      "න්ද": 199,
      "‍ර": 200,
      "මො": 201,
      "වගේ": 202,
      "තම": 203,
      "...": 204,
      "නය": 205,
      "මිනි": 206,
      "අපි": 207,
      "බල": 208,
      "කරන්න": 209,
      "බැ": 210,
      "සේ": 211,
      "නෑ": 212,
      "ව්": 213,
      "දී": 214,
      "පො": 215,
      "නු": 216,
      "යු": 217,
      "වේ": 218,
      "ඉන්න": 219,
      "බු": 220,
      "නෙ": 221,
      "ට්": 222,
      "මහ": 223,
      "නැහැ": 224,
      "ශ්": 225,
      "අපේ": 226,
      "පැ": 227,
      "කාව": 228,
      "ගැන": 229,
      "න්නෙ": 230,
      "රුව": 231,
      "කියලා": 232,
      "රිය": 233,
      "ක්ෂ": 234,
      "....": 235,
      "ලං": 236,
      "ගො": 237,
      "අය": 238,
      "තාව": 239,
      "ඔබ": 240,
      "මට": 241,
      "යේ": 242,
      "හරි": 243,
      "මැ": 244,
      "ස්ස": 245,
      "රණ": 246,
      "වෙලා": 247,
      "නව": 248,
      "ස්සු": 249,
      "සිය": 250,
      "ජන": 251,
      "පාල": 252,
      "ඩු": 253,
      "දැන්": 254,
      "ඇති": 255,
      "ලේ": 256,
      "නැති": 257,
      "දිය": 258,
      "ගි": 259,
      "ලංකාව": 260,
      "අව": 261,
      "තමයි": 262,
      "කොට": 263,
      "හු": 264,
      "සහ": 265,
      "කය": 266,
      "කරන": 267,
      "ටිය": 268,
      "මම": 269,
      "නිසා": 270,
      "ප්ර": 271,
      "ලු": 272,
      "මිනිස්සු": 273,
      "හිත": 274,
      "ෙනවා": 275,
      "න්ගේ": 276,
      "ගිය": 277,
      "පෙ": 278,
      "කියල": 279,
      "කම": 280,
      "රෝ": 281,
      "ඔය": 282,
      "වල්": 283,
      "ටම": 284,
      "රය": 285,
      "වෙන්න": 286,
      "ලැ": 287,
      "ප්‍ර": 288,
      "ලින්": 289,
      "ද්ද": 290,
      "ුවන්": 291,
      "ලෙ": 292,
      "හෙම": 293,
      "රටේ": 294,
      "තුව": 295,
      "කෙ": 296,
      "යුතු": 297,
      "හොඳ": 298,
      "ජා": 299,
      "දේශ": 300,
      "කළ": 301,
      "ච්": 302,
      "සැ": 303,
      "නී": 304,
      "බා": 305,
      "පත්": 306,
      "රැ": 307,
      "ගා": 308,
      "බො": 309,
      "විය": 310,
      "තියෙ": 311,
      "ඩි": 312,
      "අර": 313,
      "ද්ධ": 314,
      "ඩුව": 315,
      "අද": 316,
      "තේ": 317,
      "වර": 318,
      "ලිය": 319,
      "ලො": 320,
      "වලට": 321,
      "බි": 322,
      "ණු": 323,
      "ඩා": 324,
      "දෙන": 325,
      "කෝ": 326,
      "කෙන": 327,
      "ච්ච": 328,
      "හොම": 329,
      "යෙන්": 330,
      "දෙන්න": 331,
      "රී": 332,
      "ගහ": 333,
      "ටු": 334,
      "බව": 335,
      "වී": 336,
      "වන": 337,
      "හැම": 338,
      "රේ": 339,
      "යන": 340,
      "ධා": 341,
      "මේක": 342,
      "දන්න": 343,
      "ලෝ": 344,
      "මත": 345,
      "ීමට": 346,
      "කැ": 347,
      "කල": 348,
      "ම්බ": 349,
      "නිය": 350,
      "මන්": 351,
      "තව": 352,
      "රෙ": 353,
      "ක්ක": 354,
      "කියන": 355,
      "ොත්": 356,
      "සං": 357,
      "විතර": 358,
      "‍ය": 359,
      "ඇත්ත": 360,
      "කරලා": 361,
      "ගත්ත": 362,
      "බේ": 363,
      "වට": 364,
      "හොද": 365,
      "යන්න": 366,
      "කම්": 367,
      "පිය": 368,
      "හල": 369,
      "ටික": 370,
      "ඒක": 371,
      "හෝ": 372,
      "ධි": 373,
      "ගු": 374,
      "ජී": 375,
      "පති": 376,
      "ණ්": 377,
      "වය": 378,
      "සම": 379,
      "ගොඩ": 380,
      "දෙයක්": 381,
      "තැ": 382,
      "කාල": 383,
      "එපා": 384,
      "මක්": 385,
      "සල්": 386,
      "මොක": 387,
      "ලංකාවේ": 388,
      "වුරු": 389,
      "වස": 390,
      "කියන්නේ": 391,
      "වෙයි": 392,
      "වෙනවා": 393,
      "00": 394,
      "ජි": 395,
      "මයි": 396,
      "පිරි": 397,
      "තිබ": 398,
      "එහෙම": 399,
      "මය": 400,
      "කිර": 401,
      "පුළ": 402,
      "තන": 403,
      "තියෙන": 404,
      "ජනතාව": 405,
      "දහ": 406,
      "දුව": 407,
      "වන්න": 408,
      "තින්": 409,
      "ජය": 410,
      "මුද": 411,
      "අපිට": 412,
      "තිබු": 413,
      "අනි": 414,
      "අනේ": 415,
      "වහ": 416,
      "දේශපාල": 417,
      "බෙ": 418,
      "තියෙන්නේ": 419,
      "බැරි": 420,
      "දර": 421,
      "මත්": 422,
      "කින්": 423,
      "පුළුවන්": 424,
      "ළු": 425,
      "ගත": 426,
      "ගෙන්": 427,
      "න්ත": 428,
      "පක්ෂ": 429,
      "හද": 430,
      "කිසි": 431,
      "රාජ": 432,
      "ගත්": 433,
      "ල්ලා": 434,
      "තමා": 435,
      "වඩා": 436,
      "කෙනෙක්": 437,
      "උන්": 438,
      "වැර": 439,
      "ගල": 440,
      "කරනවා": 441,
      "බලා": 442,
      "එකක්": 443,
      "වැඩි": 444,
      "වැඩක්": 445,
      "රටට": 446,
      "ඕන": 447,
      "ගෝ": 448,
      "යෝ": 449,
      "ළි": 450,
      "කතා": 451,
      "තී": 452,
      "සිං": 453,
      "තුමා": 454,
      "ණා": 455,
      "නේද": 456,
      "ණය": 457,
      "කොහොම": 458,
      "නට": 459,
      "කියන්න": 460,
      "අයට": 461,
      "කරන්නේ": 462,
      "යක": 463,
      "මින්": 464,
      "වලින්": 465,
      "හිට": 466,
      "මී": 467,
      "සෙ": 468,
      "හේ": 469,
      "වද": 470,
      "පන්": 471,
      "වුන්": 472,
      "නුව": 473,
      "ලක්": 474,
      "හින්": 475,
      "ණි": 476,
      "නාව": 477,
      "පරි": 478,
      "න්ඩ": 479,
      "නත්": 480,
      "හිටිය": 481,
      "කට්": 482,
      "චා": 483,
      "රජ": 484,
      "තරම්": 485,
      "ගම": 486,
      "ලුව": 487,
      "ටත්": 488,
      "ජනා": 489,
      "ෙකු": 490,
      "දේවල්": 491,
      "අහ": 492,
      "ඉතා": 493,
      "වෙන්නේ": 494,
      "ඔයා": 495,
      "බෝ": 496,
      "සක්": 497,
      "මේවා": 498,
      "ලොකු": 499,
      "සල්ලි": 500,
      "අඩු": 501,
      "පාර": 502,
      "මුත්": 503,
      "සමහ": 504,
      "වර්": 505,
      "වැනි": 506,
      "නයක්": 507,
      "මගේ": 508,
      "කී": 509,
      "විදිය": 510,
      "මැති": 511,
      "භා": 512,
      "ලට": 513,
      "ඉදි": 514,
      "නීතිය": 515,
      "කයි": 516,
      "තො": 517,
      "හින්ද": 518,
      "මෙහෙම": 519,
      "නමුත්": 520,
      "්ය": 521,
      "නැතුව": 522,
      "කඩ": 523,
      "පම": 524,
      "තියෙනවා": 525,
      "මොකද": 526,
      "කලා": 527,
      "පහ": 528,
      "කිව්": 529,
      "සමා": 530,
      "මෝ": 531,
      "සුව": 532,
      "බලන්න": 533,
      "ඉතින්": 534,
      "කිරීම": 535,
      "කෑ": 536,
      "විදි": 537,
      "සතු": 538,
      "පිට": 539,
      "දරුව": 540,
      "ස්ථ": 541,
      "ට්ට": 542,
      "තුරු": 543,
      "මිනිසු": 544,
      "කල්": 545,
      "හරිය": 546,
      "කාරය": 547,
      "යුතුයි": 548,
      "ඩ්": 549,
      "වාස": 550,
      "එයා": 551,
      "කන්න": 552,
      "කියා": 553,
      "පේ": 554,
      "රක්": 555,
      "වේවා": 556,
      "අම්": 557,
      "අනු": 558,
      "අවුරු": 559,
      "ගී": 560,
      "න්සේ": 561,
      "සිංහල": 562,
      "කන්": 563,
      "වීම": 564,
      "බෑ": 565,
      "ඉන්නේ": 566,
      "ච්චර": 567,
      "ග්": 568,
      "ෂ්": 569,
      "කරපු": 570,
      "වැරදි": 571,
      "බය": 572,
      "නක්": 573,
      "පල": 574,
      "තත්": 575,
      "ධිපති": 576,
      "හට": 577,
      "මොන": 578,
      "ඇම": 579,
      "වූ": 580,
      "උඹ": 581,
      "වාහ": 582,
      "කොරෝ": 583,
      "ලෝක": 584,
      "බුදු": 585,
      "ලබා": 586,
      "ක්‍ර": 587,
      "ඒවා": 588,
      "ඉන්නවා": 589,
      "එක්ක": 590,
      "මහින්ද": 591,
      "හොර": 592,
      "ගය": 593,
      "සම්": 594,
      "කතාව": 595,
      "ත්ම": 596,
      "කාර": 597,
      "ආණ්": 598,
      "මෙයා": 599,
      "ර්ථ": 600,
      "පෙන": 601,
      "ස්සේ": 602,
      "ඇයි": 603,
      "කරු": 604,
      "ජනාධිපති": 605,
      "කොම": 606,
      "නැත්": 607,
      "පර": 608,
      "ආර": 609,
      "දින": 610,
      "මෙයි": 611,
      "දැන": 612,
      "විතරයි": 613,
      "ඕනෑ": 614,
      "මිය": 615,
      "ුවට": 616,
      "වන්": 617,
      "ගෙදර": 618,
      "අත": 619,
      "ාවක්": 620,
      "මුදු": 621,
      "පවු": 622,
      "ුවෙන්": 623,
      "ගියා": 624,
      "නම": 625,
      "සියලු": 626,
      "ගිහින්": 627,
      "ඔක්": 628,
      "චි": 629,
      "සිටි": 630,
      "එත": 631,
      "චන්": 632,
      "ගොඩක්": 633,
      "පිළි": 634,
      "එකේ": 635,
      "පොලි": 636,
      "දො": 637,
      "පෙර": 638,
      "ාවේ": 639,
      "අදහ": 640,
      "උනා": 641,
      "යින්": 642,
      "නෙමෙයි": 643,
      "බ්": 644,
      "පුර": 645,
      "ශා": 646,
      "ඳු": 647,
      "දන්නේ": 648,
      "නැද්ද": 649,
      "දුන්න": 650,
      "ගෑ": 651,
      "සො": 652,
      "විදියට": 653,
      "ඇතු": 654,
      "සර": 655,
      "කිසිම": 656,
      "නැත්නම්": 657,
      "තවත්": 658,
      "සත්": 659,
      "ඔහු": 660,
      "ඔබට": 661,
      "කොරෝනා": 662,
      "වරු": 663,
      "විට": 664,
      "සමහර": 665,
      "හාමුදු": 666,
      "විත": 667,
      "තුර": 668,
      "ලැබ": 669,
      "සක": 670,
      "දෙක": 671,
      "අත්": 672,
      "විශ්": 673,
      "වාද": 674,
      "අවුරුදු": 675,
      "ආණ්ඩුව": 676,
      "ඇත": 677,
      "පුද්": 678,
      "පැත්ත": 679,
      "කලින්": 680,
      "ංග": 681,
      "ලෙස": 682,
      "පළ": 683,
      "බුද්ධ": 684,
      "පත": 685,
      "හැකි": 686,
      "බැහැ": 687,
      "අවශ්": 688,
      "සී": 689,
      "උද": 690,
      "තික": 691,
      "වහන්සේ": 692,
      "යනවා": 693,
      "මුන්": 694,
      "කමක්": 695,
      "යන්": 696,
      "මල්": 697,
      "ඉඳ": 698,
      "සරණ": 699,
      "ස්තර": 700,
      "සින්": 701,
      "කුත්": 702,
      "ආද": 703,
      "දව": 704,
      "සන්": 705,
      ".....": 706,
      "එතකොට": 707,
      "අන්": 708,
      "අතර": 709,
      "ඕනේ": 710,
      "වෛ": 711,
      "ර්ය": 712,
      "මෝඩ": 713,
      "එන": 714,
      "එය": 715,
      "නිදහ": 716,
      "නවද": 717,
      "පට": 718,
      "අමා": 719,
      "ගණ": 720,
      "හිං": 721,
      "දක්": 722,
      "සල": 723,
      "හාමුදුරුව": 724,
      "ඇවි": 725,
      "ෙත්": 726,
      "පුල": 727,
      "එක්": 728,
      "වරණ": 729,
      "කාලේ": 730,
      "වුණ": 731,
      "අන": 732,
      "මහා": 733,
      "මතක": 734,
      "දියු": 735,
      "මනු": 736,
      "පාර්": 737,
      "ඉවර": 738,
      "පස්සේ": 739,
      "ුවේ": 740,
      "චන්ද": 741,
      "දෙනා": 742,
      "මර": 743,
      "අනිත්": 744,
      "ඉල්ල": 745,
      "ඉස්ස": 746,
      "තමන්ගේ": 747,
      "වගේම": 748,
      "රො": 749,
      "එකට": 750,
      "රටක්": 751,
      "ආරක්ෂ": 752,
      "සිදුව": 753,
      "ඔක්කොම": 754,
      "ලික": 755,
      "පාලනය": 756,
      "උප": 757,
      "පසු": 758,
      "‍යා": 759,
      "වග": 760,
      "පොඩි": 761,
      "කොහොමද": 762,
      "කට්ටිය": 763,
      "වුනා": 764,
      "........": 765,
      "තැන": 766,
      "ඒත්": 767,
      "මෙම": 768,
      "‍රී": 769,
      "මහත්ත": 770,
      "ජාතිය": 771,
      "පුලුවන්": 772,
      "ියා": 773,
      "ාවට": 774,
      "හැබැ": 775,
      "යහ": 776,
      "යො": 777,
      "එන්න": 778,
      "සුදු": 779,
      "මුදල්": 780,
      "තියා": 781,
      "හැබැයි": 782,
      "අල්ල": 783,
      "ආය": 784,
      "කරගන්න": 785,
      "හරිම": 786,
      "සේව": 787,
      "නෝ": 788,
      "බස්": 789,
      "ලී": 790,
      "තුම්": 791,
      "ෙකුට": 792,
      "නැත්ත": 793,
      "පමණ": 794,
      "ලැබේ": 795,
      "යන්නේ": 796,
      "දාන්න": 797,
      "වැඩිය": 798,
      "ජ්": 799,
      "නැත": 800,
      "වෙනුවෙන්": 801,
      "නෙවෙයි": 802,
      "වටි": 803,
      "හම": 804,
      "මෙවැනි": 805,
      "පෙන්න": 806,
      "පෝ": 807,
      "ර්ශ": 808,
      "තියෙන්නෙ": 809,
      "විතරක්": 810,
      "හරියට": 811,
      "ගම්": 812,
      "මිනිස්සුන්ට": 813,
      "රාජපක්ෂ": 814,
      "ඕක": 815,
      "යයි": 816,
      "වන්නේ": 817,
      "ළමයි": 818,
      "ප්‍රශ්": 819,
      "20": 820,
      "පුදු": 821,
      "කාට": 822,
      "ජීවිත": 823,
      "චී": 824,
      "දවස": 825,
      "පස්ස": 826,
      "බන්": 827,
      "මාර්": 828,
      "දීම": 829,
      "භාව": 830,
      "ජිත්": 831,
      "තිබ්": 832,
      "මූ": 833,
      "සිට": 834,
      "හොඳයි": 835,
      "දේශපාලන": 836,
      "වැඩේ": 837,
      "හෙත්": 838,
      "නැතිව": 839,
      "තෙ": 840,
      "මේන්": 841,
      "ප්ප": 842,
      "තේරු": 843,
      "අයි": 844,
      "ඔවුන්": 845,
      "ලිම්": 846,
      "හැමෝ": 847,
      "ක්ම": 848,
      "රිකාව": 849,
      "නායක": 850,
      "දාල": 851,
      "ජීවත්": 852,
      "විනා": 853,
      "අහිං": 854,
      "තුන්": 855,
      "මීට": 856,
      "ඉන්ද": 857,
      "එම": 858,
      "ඨා": 859,
      "ඩිය": 860,
      "දකි": 861,
      "ලස්ස": 862,
      "ප්පු": 863,
      "මහතා": 864,
      "ඉස්සර": 865,
      "පින්": 866,
      "මෙතන": 867,
      "ටින්": 868,
      "ංශ": 869,
      "ඉද": 870,
      "ධ්": 871,
      "නිල": 872,
      "නිල්": 873,
      "නොවේ": 874,
      "කියන්නෙ": 875,
      "ඳි": 876,
      "අපරා": 877,
      "ඉඩ": 878,
      "යෙක්": 879,
      "ලංකා": 880,
      "බොරු": 881,
      "උන්ට": 882,
      "කන": 883,
      "නං": 884,
      "වෙන්නෙ": 885,
      "ලංකාවට": 886,
      "කවුරු": 887,
      "රම": 888,
      "ද්ය": 889,
      "කාන්": 890,
      "කයන්": 891,
      "කළා": 892,
      "සට": 893,
      "තමන්": 894,
      "කයෝ": 895,
      "දෙවිය": 896,
      "මුස්": 897,
      "දැක්": 898,
      "කැම": 899,
      "කරගෙන": 900,
      "දෙම": 901,
      "නියම": 902,
      "ටිකක්": 903,
      "ගමන්": 904,
      "නින්": 905,
      "කලේ": 906,
      "සම්බ": 907,
      "හම්බ": 908,
      "කිරීමට": 909,
      "කවු": 910,
      "පී": 911,
      "මොනවා": 912,
      "රියා": 913,
      "චන්දෙ": 914,
      "රක": 915,
      "ශි": 916,
      "ලය": 917,
      "ෙන්ම": 918,
      "වුණා": 919,
      "පුද්ගල": 920,
      "ක්ද": 921,
      "හිර": 922,
      "නැව": 923,
      "මිල": 924,
      "ඇත්තටම": 925,
      "අධි": 926,
      "ඔහොම": 927,
      "ත්වය": 928,
      "කොළ": 929,
      "ලැබේවා": 930,
      "අනා": 931,
      "කරල": 932,
      "මෙය": 933,
      "අරන්": 934,
      "ටා": 935,
      "පව්": 936,
      "ඉති": 937,
      "පය": 938,
      "මිනිසුන්": 939,
      "මුස්ලිම්": 940,
      "සිදු": 941,
      "සුබ": 942,
      "??": 943,
      "කොල්ල": 944,
      "අපට": 945,
      "සමාජ": 946,
      "විදිහට": 947,
      "තියන": 948,
      "නීති": 949,
      "වගෙ": 950,
      "කියනවා": 951,
      "කාලෙ": 952,
      "එකෙක්": 953,
      "රටවල්": 954,
      "දීලා": 955,
      "අනුව": 956,
      "පව": 957,
      "හෙන": 958,
      "සිද්ධ": 959,
      "රුණ": 960,
      "නයේ": 961,
      "ඇමති": 962,
      "පාර්ලි": 963,
      "පුව": 964,
      "සිරි": 965,
      "අහිංසක": 966,
      "ඊට": 967,
      "දෙනවා": 968,
      "වෙනස්": 969,
      "ගුණ": 970,
      "බෞ": 971,
      "ඉදිරිය": 972,
      "බඩු": 973,
      "සයි": 974,
      "විරු": 975,
      "අවස්ථ": 976,
      "අන්ති": 977,
      "ඔවු": 978,
      "ඡන්ද": 979,
      "මෙහෙ": 980,
      "ලෙඩ": 981,
      "ඉන්දිය": 982,
      "රහ": 983,
      "වාදී": 984,
      "පිලි": 985,
      "ද්දී": 986,
      "සාමා": 987,
      "ගෝඨා": 988,
      "මනුස්ස": 989,
      "ත්ර": 990,
      "කර්": 991,
      "කටයුතු": 992,
      "ගැනීමට": 993,
      "ගත්තා": 994,
      "කාන්තාව": 995,
      "අග": 996,
      "ත්‍ර": 997,
      "එකම": 998,
      "බොහෝ": 999,
      "ච්චි": 1000,
      "පාර්ලිමේන්": 1001,
      "ඉස්": 1002,
      "නයට": 1003,
      "මං": 1004,
      "දාලා": 1005,
      "ගැනීම": 1006,
      "වියද": 1007,
      "දන්නවා": 1008,
      "පොලිසිය": 1009,
      "පුදුම": 1010,
      "ගන්නවා": 1011,
      "ශ්‍රී": 1012,
      "උනත්": 1013,
      "ෙන්නේ": 1014,
      "දන්නා": 1015,
      "සඳ": 1016,
      "ින්": 1017,
      "හැටි": 1018,
      "කොච්චර": 1019,
      "සමග": 1020,
      "දොස්තර": 1021,
      "ලස්සන": 1022,
      "කිරි": 1023,
      "ඉදිරි": 1024,
      "අදහස්": 1025,
      "ප්රති": 1026,
      "කව": 1027,
      "සජිත්": 1028,
      "න්ධ": 1029,
      "හැර": 1030,
      "කිව": 1031,
      "තේරුම්": 1032,
      "බෞද්ධ": 1033,
      "රන්": 1034,
      "රනිල්": 1035,
      "වලා": 1036,
      "අලු": 1037,
      "වක්": 1038,
      "කරා": 1039,
      "රණය": 1040,
      "දියුණු": 1041,
      "ධර්": 1042,
      "ශේ": 1043,
      "තියනවා": 1044,
      "හොදයි": 1045,
      "ජනතාවට": 1046,
      "හිටපු": 1047,
      "අම්ම": 1048,
      "එකයි": 1049,
      "රජයේ": 1050,
      "දඩුව": 1051,
      "කුඩු": 1052,
      "ලැබු": 1053,
      "ගන්නේ": 1054,
      "රයක්": 1055,
      "කොහෙ": 1056,
      "තිබෙන": 1057,
      "එවුන්": 1058,
      "ස්ත": 1059,
      "ාවත්": 1060,
      "හැකිය": 1061,
      "කුණු": 1062,
      "ජාතික": 1063,
      "වාහන": 1064,
      "නිදහස්": 1065,
      "විනාශ": 1066,
      "උත්": 1067,
      "ගන": 1068,
      "ලබ": 1069,
      "නොත්": 1070,
      "කීම": 1071,
      "ළඟ": 1072,
      "ලයි": 1073,
      "ත්ව": 1074,
      "තියි": 1075,
      "කේ": 1076,
      "හර": 1077,
      "ියට": 1078,
      "තුම": 1079,
      "හැදි": 1080,
      "දාන": 1081,
      "ප්රශ්": 1082,
      "සතුටු": 1083,
      "හිමි": 1084,
      "දැම්": 1085,
      "ගොල්ල": 1086,
      "ධාරී": 1087,
      "පටන්": 1088,
      "දුම්": 1089,
      "හොරු": 1090,
      "පොර": 1091,
      "පොහො": 1092,
      "ඉන්නෙ": 1093,
      "රෙන්න": 1094,
      "ඉගෙන": 1095,
      "ගලික": 1096,
      "හේතුව": 1097,
      "බල්ල": 1098,
      "යුතුය": 1099,
      "ගරු": 1100,
      "දූ": 1101,
      "ුවක්": 1102,
      "පිහිට": 1103,
      "පුතා": 1104,
      "ලියට": 1105,
      "ියෝ": 1106,
      "දෙන්නේ": 1107,
      "අලි": 1108,
      "රූ": 1109,
      "මිනිහ": 1110,
      "කයෙක්": 1111,
      "බොහොම": 1112,
      "මෙන්": 1113,
      "තාත්ත": 1114,
      "බලය": 1115,
      "අවශ්ය": 1116,
      "දවස්": 1117,
      "කවුද": 1118,
      "ත්මක": 1119,
      "සම්බන්ධ": 1120,
      "සාමාන්": 1121,
      "100": 1122,
      "තෝ": 1123,
      "හදා": 1124,
      "කඩේ": 1125,
      "ඇවිත්": 1126,
      "පෙන්": 1127,
      "ත්රී": 1128,
      "වැට": 1129,
      "දෙය": 1130,
      "ප්පත්": 1131,
      "පෑ": 1132,
      "හදන්න": 1133,
      "‍රා": 1134,
      "විද්": 1135,
      "කුණ": 1136,
      "පස්සෙ": 1137,
      "මන": 1138,
      "කෙනා": 1139,
      "බෙහෙත්": 1140,
      "චාර": 1141,
      "උස": 1142,
      "කවද": 1143,
      "හිතා": 1144,
      "වැද": 1145,
      "මැතිවරණ": 1146,
      "කාරයෝ": 1147,
      "එ්": 1148,
      "රව": 1149,
      "ලව": 1150,
      "රටවල": 1151,
      "වර්ධ": 1152,
      "කැමති": 1153,
      "අධ්": 1154,
      "බී": 1155,
      "හමුද": 1156,
      "ුවෙ": 1157,
      "දුප්පත්": 1158,
      "මාන": 1159,
      "දිග": 1160,
      "දීල": 1161,
      "ණ්ඩ": 1162,
      "වාදය": 1163,
      "වටිනා": 1164,
      "අමතක": 1165,
      "ාවෙන්": 1166,
      "දුක්": 1167,
      "නාය": 1168,
      "රැක": 1169,
      "උදව්": 1170,
      "කාර්": 1171,
      "එදා": 1172,
      "පන": 1173,
      "ස්ට්": 1174,
      "ටියට": 1175,
      "ස්ථා": 1176,
      "අසරණ": 1177,
      "බහු": 1178,
      "යම්": 1179,
      "රයි": 1180,
      "සූ": 1181,
      "විසින්": 1182,
      "දුක": 1183,
      "පුරු": 1184,
      "මුන්ට": 1185,
      "යාට": 1186,
      "ට්ටු": 1187,
      "අරගෙන": 1188,
      "හැමෝම": 1189,
      "එළ": 1190,
      "ස්තු": 1191,
      "බං": 1192,
      "මදි": 1193,
      "යව": 1194,
      "ලත්": 1195,
      "විශේ": 1196,
      "දාම": 1197,
      "ගැහැ": 1198,
      "යුත්ත": 1199,
      "බුද්ධි": 1200,
      "ඉන්": 1201,
      "දඬ": 1202,
      "දන": 1203,
      "ධ්ය": 1204,
      "නඩු": 1205,
      "බට": 1206,
      "රෙන": 1207,
      "පැතුම්": 1208,
      "කාලය": 1209,
      "සොයා": 1210,
      "ඉක්ම": 1211,
      "සෑ": 1212,
      "කෙල්ල": 1213,
      "මතක්": 1214,
      "10": 1215,
      "ලක්ෂ": 1216,
      "මුහු": 1217,
      "සියල්ල": 1218,
      "තුමාට": 1219,
      "තය": 1220,
      "දරු": 1221,
      "කරයි": 1222,
      "පිස්සු": 1223,
      "වුනත්": 1224,
      "හාස": 1225,
      "කරන්නෙ": 1226,
      "විශ්වාස": 1227,
      "වෛද්ය": 1228,
      "සුදුසු": 1229,
      "අනාගත": 1230,
      "උඩ": 1231,
      "ගොන්": 1232,
      "මමත්": 1233,
      "තිබුනා": 1234,
      "අවු": 1235,
      "උපා": 1236,
      "භය": 1237,
      "රජය": 1238,
      "වීමට": 1239,
      "ීය": 1240,
      "ක්රියා": 1241,
      "විදු": 1242,
      "රෝගී": 1243,
      "බලාගෙන": 1244,
      "ගණන්": 1245,
      "15": 1246,
      "පහු": 1247,
      "තියක්": 1248,
      "ද්දි": 1249,
      "සාධා": 1250,
      "ඇත්තේ": 1251,
      "ර්ථි": 1252,
      "වැදගත්": 1253,
      "විශේෂ": 1254,
      "තහ": 1255,
      "විස": 1256,
      "පැමි": 1257,
      "වාසනාව": 1258,
      "දඬුව": 1259,
      "අඩ": 1260,
      "කෘ": 1261,
      "ටයි": 1262,
      "පූ": 1263,
      "බදු": 1264,
      "න්ව": 1265,
      "ල්ලු": 1266,
      "මාර්ග": 1267,
      "ආර්ථි": 1268,
      "එනවා": 1269,
      "දන්නෙ": 1270,
      "විදේශ": 1271,
      "සිල්": 1272,
      "කළේ": 1273,
      "පාර්ලිමේන්තුව": 1274,
      "බයි": 1275,
      "නිවන්": 1276,
      "ගෙවල්": 1277,
      "කෑම": 1278,
      "සිටින": 1279,
      "අවශ්‍ය": 1280,
      "ඇමෙ": 1281,
      "වෘ": 1282,
      "නිර්": 1283,
      "රින්": 1284,
      "වම": 1285,
      "හොයා": 1286,
      "වලු": 1287,
      "මහත්": 1288,
      "මටත්": 1289,
      "ලැබෙ": 1290,
      "මොකක්ද": 1291,
      "නැවත": 1292,
      "ඔන්න": 1293,
      "ඔව්": 1294,
      "ශක්": 1295,
      "ෙන්න": 1296,
      "හැටියට": 1297,
      "ලෝකෙ": 1298,
      "කල්ප": 1299,
      "විරුද්ධ": 1300,
      "ියේ": 1301,
      "ියක්": 1302,
      "ලිපිය": 1303,
      "දැක්ක": 1304,
      "සෙට්": 1305,
      "ගනි": 1306,
      "ගමේ": 1307,
      "රස": 1308,
      "ීම්": 1309,
      "ක්රම": 1310,
      "එකතු": 1311,
      "ප්‍රති": 1312,
      "පිරිමි": 1313,
      "කප": 1314,
      "බර": 1315,
      "න්ගෙ": 1316,
      "රුපිය": 1317,
      "මාස": 1318,
      "ත්තර": 1319,
      "නොකර": 1320,
      "නුත්": 1321,
      "ංක": 1322,
      "තරුණ": 1323,
      "දක්ෂ": 1324,
      "නග": 1325,
      "යකෝ": 1326,
      "වාර්": 1327,
      "රටම": 1328,
      "සේවය": 1329,
      "ජාති": 1330,
      "ගහන්න": 1331,
      "තිබෙනවා": 1332,
      "අපරාධ": 1333,
      "කොළඹ": 1334,
      "අලුත්": 1335,
      "කව්": 1336,
      "දර්ශ": 1337,
      "වතුර": 1338,
      "නිකන්": 1339,
      "වෙනි": 1340,
      "න්ටත්": 1341,
      "ලැබෙන": 1342,
      "ංචි": 1343,
      "ඕනෙ": 1344,
      "ගස්": 1345,
      "මග": 1346,
      "මරණ": 1347,
      "යැ": 1348,
      "ලාං": 1349,
      "වැසි": 1350,
      "වැටු": 1351,
      "මාර": 1352,
      "කාලයක්": 1353,
      "රාජ්ය": 1354,
      "සමහරු": 1355,
      "19": 1356,
      "එකා": 1357,
      "පල්ලා": 1358,
      "භි": 1359,
      "සෙන": 1360,
      "නික": 1361,
      "ල්ලේ": 1362,
      "ගෝටා": 1363,
      "ගුවන්": 1364,
      "පවා": 1365,
      "ස්ට": 1366,
      "දුර": 1367,
      "දෙනෙක්": 1368,
      "ගත්තේ": 1369,
      "ලග": 1370,
      "වෙනත්": 1371,
      "වේවි": 1372,
      "න්නෙත්": 1373,
      "හිතන්නේ": 1374,
      "සැල": 1375,
      "හැමදාම": 1376,
      "අති": 1377,
      "අගය": 1378,
      "වයි": 1379,
      "සන": 1380,
      "න්දෙ": 1381,
      "පමණක්": 1382,
      "තක්": 1383,
      "පද": 1384,
      "බත්": 1385,
      "යකට": 1386,
      "ශයෙන්": 1387,
      "ස්වා": 1388,
      "දැනු": 1389,
      "නොවෙයි": 1390,
      "තාම": 1391,
      "ගිහි": 1392,
      "පොලිස්": 1393,
      "ජ්ජ": 1394,
      "වියදම්": 1395,
      "අන්ත": 1396,
      "තන්": 1397,
      "සෞ": 1398,
      "පොල්": 1399,
      "අමු": 1400,
      "ආපු": 1401,
      "ඒකට": 1402,
      "දන්": 1403,
      "රත්": 1404,
      "ෙන්ට්": 1405,
      "කිව්වා": 1406,
      "සඳහා": 1407,
      "නවත්": 1408,
      "ලන්": 1409,
      "ෝද": 1410,
      "දුන්": 1411,
      "මුළු": 1412,
      "හාර": 1413,
      "රුවන්": 1414,
      "......": 1415,
      "හිතන්න": 1416,
      "ලෝකයේ": 1417,
      "කොහෙද": 1418,
      "උන": 1419,
      "ෂණ": 1420,
      "විශා": 1421,
      "වැරැ": 1422,
      "පුලුව": 1423,
      "ර්ණ": 1424,
      "ගින්": 1425,
      "පෙළ": 1426,
      "ඉවරයි": 1427,
      "ඩො": 1428,
      "හල්": 1429,
      "ලාට": 1430,
      "සිත": 1431,
      "ජනපති": 1432,
      "බොරුව": 1433,
      "අනික": 1434,
      "බහුතර": 1435,
      "ආඩ": 1436,
      "උනේ": 1437,
      "ෆො": 1438,
      "සුද්ද": 1439,
      "මෙච්චර": 1440,
      "යාගේ": 1441,
      "නයෙන්": 1442,
      "බැලුව": 1443,
      "තිබුන": 1444,
      "හිටියා": 1445,
      "අගමැති": 1446,
      "ඉදිරිපත්": 1447,
      "අඩුව": 1448,
      "බඩ": 1449,
      "ක්කු": 1450,
      "රටක": 1451,
      "මොනවද": 1452,
      "මිනිසුන්ට": 1453,
      "ලෝකේ": 1454,
      "කණ": 1455,
      "කාශ": 1456,
      "හොඳට": 1457,
      "දෙකක්": 1458,
      "පවති": 1459,
      "එන්නේ": 1460,
      "තෙක්": 1461,
      "නකොට": 1462,
      "වශයෙන්": 1463,
      "ත්තු": 1464,
      "ුවත්": 1465,
      "ගෙද": 1466,
      "ක්‍රම": 1467,
      "රුපියල්": 1468,
      "ඇද": 1469,
      "යෙ": 1470,
      "වෙනකොට": 1471,
      "නොව": 1472,
      "මහජන": 1473,
      "ආඩම්බ": 1474,
      "25": 1475,
      "ඉහ": 1476,
      "‍රි": 1477,
      "කරණය": 1478,
      "සික": 1479,
      "තියන්න": 1480,
      "පැහැදි": 1481,
      "කයන්ට": 1482,
      "ලියන": 1483,
      "වුණත්": 1484,
      "දඩුවම්": 1485,
      "අප්": 1486,
      "මරා": 1487,
      "රෙනවා": 1488,
      "හැදුව": 1489,
      "පුරා": 1490,
      "මාධ්ය": 1491,
      "කිරී": 1492,
      "දාගෙන": 1493,
      "අයගේ": 1494,
      "ඇමරිකාව": 1495,
      "අන්තිමට": 1496,
      "කවදාවත්": 1497,
      "ලාංකි": 1498,
      "එවු": 1499,
      "නයි": 1500,
      "පිටි": 1501,
      "පාරේ": 1502,
      "පාසල්": 1503,
      "තීරණ": 1504,
      "සරණයි": 1505,
      "ආන්": 1506,
      "ජේ": 1507,
      "ටෝ": 1508,
      "පරී": 1509,
      "ා්": 1510,
      "මික": 1511,
      "කුල": 1512,
      "ගානක්": 1513,
      "පදි": 1514,
      "ලයක්": 1515,
      "හරක්": 1516,
      "වෙන්": 1517,
      "වුනේ": 1518,
      "දියි": 1519,
      "ලංකාවෙ": 1520,
      "ගහන": 1521,
      "ආරක්ෂා": 1522,
      "දෑ": 1523,
      "ඹු": 1524,
      "ලද": 1525,
      "හන්": 1526,
      "කරණ": 1527,
      "ගැට": 1528,
      "පාලන": 1529,
      "ගියේ": 1530,
      "බිහි": 1531,
      "අනෙක්": 1532,
      "ආග": 1533,
      "කණ්": 1534,
      "දය": 1535,
      "සර්": 1536,
      "පාවි": 1537,
      "එකත්": 1538,
      "දාය": 1539,
      "වෙනව": 1540,
      "යෙන්ම": 1541,
      "හිටියේ": 1542,
      "සියලුම": 1543,
      "ආදරය": 1544,
      "වැරැද්ද": 1545,
      "කූ": 1546,
      "ඝා": 1547,
      "ඩක්": 1548,
      "ථා": 1549,
      "වින්": 1550,
      "මේවට": 1551,
      "හිරේ": 1552,
      "නැහැනේ": 1553,
      "තේරෙ": 1554,
      "ඉතාම": 1555,
      "අම්මා": 1556,
      "ධර්ම": 1557,
      "දුම්රිය": 1558,
      "උගත්": 1559,
      "ඔලුව": 1560,
      "කමට": 1561,
      "ගයක්": 1562,
      "වනවා": 1563,
      "ෙලා": 1564,
      "විධා": 1565,
      "පාස්": 1566,
      "කොයි": 1567,
      "මෙන්න": 1568,
      "යුද්ධ": 1569,
      "ඔබගේ": 1570,
      "හිතෙනවා": 1571,
      "කෙසේ": 1572,
      "වසර": 1573,
      "පේනවා": 1574,
      "දුන්නා": 1575,
      "තුමනි": 1576,
      "සාධාරණ": 1577,
      "විශාල": 1578,
      "ආගම": 1579,
      "තනි": 1580,
      "බූ": 1581,
      "ලගේ": 1582,
      "වං": 1583,
      "නිවා": 1584,
      "මිසක්": 1585,
      "මෙවන්": 1586,
      "දායක": 1587,
      "නවට": 1588,
      "අහන්න": 1589,
      "දරුවන්": 1590,
      "පිළිබ": 1591,
      "අමාරු": 1592,
      "දැක්කම": 1593,
      "පොහොට්ට": 1594,
      "රන": 1595,
      "විවාහ": 1596,
      "තුල": 1597,
      "වෙච්ච": 1598,
      "නෙමේ": 1599,
      "රැකිය": 1600,
      "ගහලා": 1601,
      "තැන්": 1602,
      "000": 1603,
      "කොහොමත්": 1604,
      "අංශ": 1605,
      "පවත්": 1606,
      "විම": 1607,
      "හැක": 1608,
      "මාණ": 1609,
      "නවත්ත": 1610,
      "ගැහැණු": 1611,
      "ඕවා": 1612,
      "ෂි": 1613,
      "ස්ව": 1614,
      "කියපු": 1615,
      "පාට": 1616,
      "ව්යා": 1617,
      "වේද": 1618,
      "ොත්තු": 1619,
      "නිලධාරී": 1620,
      "ඉවත්": 1621,
      "ඕනි": 1622,
      "පර්": 1623,
      "ෂණය": 1624,
      "සදා": 1625,
      "පාද": 1626,
      "දැක": 1627,
      "න්දර": 1628,
      "අපිත්": 1629,
      "පොළ": 1630,
      "ක්ෂණ": 1631,
      "ක්ෂි": 1632,
      "තත්වය": 1633,
      "පුද්ගලික": 1634,
      "බුද්ධිමත්": 1635,
      "සෝ": 1636,
      "සන්න": 1637,
      "න්ගෙන්": 1638,
      "ක්රි": 1639,
      "කරමු": 1640,
      "දුන්නේ": 1641,
      "පිරිසක්": 1642,
      "ලංකාදී": 1643,
      "කවුරුත්": 1644,
      "පක්": 1645,
      "පනි": 1646,
      "හූ": 1647,
      "ළමය": 1648,
      "කරමින්": 1649,
      "සිටිය": 1650,
      "දෙස්": 1651,
      "මුදා": 1652,
      "හොය": 1653,
      "පොඩ්": 1654,
      "වෙලාවේ": 1655,
      "කාලකන්න": 1656,
      "නුවර": 1657,
      "සතුට": 1658,
      "පිටරට": 1659,
      "විශ්ව": 1660,
      "ඉඳලා": 1661,
      "පාවිච්චි": 1662,
      "අැ": 1663,
      "ෆ්": 1664,
      "කටද": 1665,
      "මොලේ": 1666,
      "තමන්ට": 1667,
      "සේවා": 1668,
      "පොදු": 1669,
      "අවසා": 1670,
      "ප්රේ": 1671,
      "පමණි": 1672,
      "අා": 1673,
      "ඇර": 1674,
      "එත්": 1675,
      "තල": 1676,
      "රස්": 1677,
      "නිවැරදි": 1678,
      "හොරා": 1679,
      "ද්දෙ": 1680,
      "ීමක්": 1681,
      "න්ට්": 1682,
      "ගෙන්න": 1683,
      "ලියා": 1684,
      "කෝටි": 1685,
      "කෙනෙකුට": 1686,
      "බැරිද": 1687,
      "හොරකම්": 1688,
      "මල්ලි": 1689,
      "ආයතන": 1690,
      "ඉදිරියට": 1691,
      "යුත්තේ": 1692,
      "මඩ": 1693,
      "යූ": 1694,
      "රෑ": 1695,
      "වච": 1696,
      "සද": 1697,
      "නිරෝ": 1698,
      "ගැල": 1699,
      "අයත්": 1700,
      "වරදක්": 1701,
      "සංවර්ධ": 1702,
      "කතාවක්": 1703,
      "අමාරුව": 1704,
      "ප්‍රශ්න": 1705,
      "ශක්තිය": 1706,
      "ආන්ඩුව": 1707,
      "ජනය": 1708,
      "නරක": 1709,
      "හෑ": 1710,
      "ෙනි": 1711,
      "මේකට": 1712,
      "වුන": 1713,
      "සාදු": 1714,
      "පැන": 1715,
      "ක්‍රියා": 1716,
      "ඉස්කෝ": 1717,
      "සතුටුයි": 1718,
      "ඉල්ලා": 1719,
      "ගල්": 1720,
      "ටෙ": 1721,
      "ටර්": 1722,
      "පසුව": 1723,
      "ලම": 1724,
      "ේ": 1725,
      "තිබුනේ": 1726,
      "ලබන": 1727,
      "පොරොත්තු": 1728,
      "සාමාන්ය": 1729,
      "ගෙදරට": 1730,
      "ආව": 1731,
      "කඩා": 1732,
      "ධී": 1733,
      "මන්ද": 1734,
      "ළුව": 1735,
      "ලාගේ": 1736,
      "විද": 1737,
      "කාලා": 1738,
      "ඔබතුමා": 1739,
      "මැද": 1740,
      "සැක": 1741,
      "ලොත්": 1742,
      "යනකොට": 1743,
      "ලෝකය": 1744,
      "අනිවා": 1745,
      "පක්ෂය": 1746,
      "බලාපොරොත්තු": 1747,
      "බයිය": 1748,
      "මහත්තයෝ": 1749,
      "නැත්තේ": 1750,
      "අදාල": 1751,
      "උපරි": 1752,
      "එහෙ": 1753,
      "ජො": 1754,
      "දීමට": 1755,
      "ාවෙ": 1756,
      "රිස්": 1757,
      "හැදු": 1758,
      "නොවන": 1759,
      "ශ්රී": 1760,
      "ජනතා": 1761,
      "සැප": 1762,
      "වටේ": 1763,
      "අඩුම": 1764,
      "පැත්තේ": 1765,
      "පළා": 1766,
      "ඔවුන්ට": 1767,
      "මානසික": 1768,
      "කාලකන්නි": 1769,
      "50": 1770,
      "තයි": 1771,
      "නඩුව": 1772,
      "මතු": 1773,
      "හය": 1774,
      "න්දු": 1775,
      "විනි": 1776,
      "වැසිය": 1777,
      "දුරු": 1778,
      "සුභ": 1779,
      "සාද": 1780,
      "ව්පිය": 1781,
      "වෙලාවට": 1782,
      "ඩින්": 1783,
      "බවට": 1784,
      "ජයවේවා": 1785,
      "පාරවල්": 1786,
      "තොපි": 1787,
      "වගකීම": 1788,
      "වුනාට": 1789,
      "තියාගෙන": 1790,
      "ංගු": 1791,
      "අනෙ": 1792,
      "ආවේ": 1793,
      "ඉහල": 1794,
      "උදේ": 1795,
      "එලියට": 1796,
      "මල": 1797,
      "යවන්න": 1798,
      "ළම": 1799,
      "කරුව": 1800,
      "තිරි": 1801,
      "එකෙන්": 1802,
      "දිරි": 1803,
      "මුණ": 1804,
      "මුල්": 1805,
      "යටත්": 1806,
      "කෙල": 1807,
      "ජාතන්": 1808,
      "වරද": 1809,
      "තවම": 1810,
      "දහම": 1811,
      "දේශපාලනය": 1812,
      "බෝම්බ": 1813,
      "භාවි": 1814,
      "නීතියක්": 1815,
      "ලිපියක්": 1816,
      "ඡන්දෙ": 1817,
      "ජෝ": 1818,
      "ටී": 1819,
      "පල්ල": 1820,
      "වාසි": 1821,
      "මුල": 1822,
      "සුර": 1823,
      "නොහැකි": 1824,
      "පොරො": 1825,
      "දැන්වත්": 1826,
      "ගියොත්": 1827,
      "නියෝ": 1828,
      "මන්දා": 1829,
      "සමඟ": 1830,
      "වැරදියි": 1831,
      "කයින්": 1832,
      "කිව්වේ": 1833,
      "කරුණා": 1834,
      "ගියාම": 1835,
      "ගෑනු": 1836,
      "ආදර්ශ": 1837,
      "දක්වා": 1838,
      "ගෝඨාභය": 1839,
      "උසස්": 1840,
      "ක්රියාත්මක": 1841,
      "ගන්": 1842,
      "ය්": 1843,
      "හෙන්": 1844,
      "විහි": 1845,
      "විරෝ": 1846,
      "දෙන්නෙ": 1847,
      "දේම": 1848,
      "හෙට": 1849,
      "පෙරේ": 1850,
      "ලැජ්ජ": 1851,
      "ඕනෑම": 1852,
      "වැඩියි": 1853,
      "කාටවත්": 1854,
      "ලංකාදීප": 1855,
      "සදහා": 1856,
      "පරා": 1857,
      "බනි": 1858,
      "මනා": 1859,
      "ෂා": 1860,
      "යිද": 1861,
      "වාගෙන": 1862,
      "රිලා": 1863,
      "නැගි": 1864,
      "තියේ": 1865,
      "ගැහ": 1866,
      "ලින්ම": 1867,
      "බේර": 1868,
      "බේරා": 1869,
      "යෝජන": 1870,
      "උත්සා": 1871,
      "බටහිර": 1872,
      "ඇමෙරිකාව": 1873,
      "උපරිම": 1874,
      "ඇස්": 1875,
      "තල්": 1876,
      "හත්": 1877,
      "හදි": 1878,
      "කරන්ඩ": 1879,
      "නිසි": 1880,
      "රිකා": 1881,
      "හැසි": 1882,
      "නොවී": 1883,
      "සේන": 1884,
      "ඉන්නව": 1885,
      "ඔබේ": 1886,
      "කයො": 1887,
      "වීර": 1888,
      "ධාන": 1889,
      "කාලයේ": 1890,
      "ජිත": 1891,
      "ශිෂ්": 1892,
      "පහුගිය": 1893,
      "දඬුවම්": 1894,
      "උදා": 1895,
      "එහෙන": 1896,
      "මගු": 1897,
      "හිතු": 1898,
      "කොර": 1899,
      "කොන්ද": 1900,
      "සුළු": 1901,
      "කියලයි": 1902,
      "රෝග": 1903,
      "රැස්": 1904,
      "හොදට": 1905,
      "ඔයාට": 1906,
      "උනාට": 1907,
      "ඔහුට": 1908,
      "විද්‍යා": 1909,
      "නගර": 1910,
      "පැහැදිලි": 1911,
      "පොඩ්ඩක්": 1912,
      "ආයු": 1913,
      "උබල": 1914,
      "එන්": 1915,
      "ගෞ": 1916,
      "පඩි": 1917,
      "මෑ": 1918,
      "හමුදා": 1919,
      "කරේ": 1920,
      "කරදර": 1921,
      "පාඩ": 1922,
      "ලිපි": 1923,
      "කිලි": 1924,
      "හොයන්න": 1925,
      "මෙහි": 1926,
      "බලන්": 1927,
      "ගාන": 1928,
      "බිරි": 1929,
      "ගහල": 1930,
      "ගහනවා": 1931,
      "ජීවි": 1932,
      "කිව්ව": 1933,
      "උදවිය": 1934,
      "මිනිහෙක්": 1935,
      "තහනම්": 1936,
      "200": 1937,
      "එල": 1938,
      "එහි": 1939,
      "එසේ": 1940,
      "ඛ්ය": 1941,
      "ජන්": 1942,
      "පං": 1943,
      "මඟ": 1944,
      "හී": 1945,
      "විසි": 1946,
      "විකුණ": 1947,
      "පිටින්": 1948,
      "වෙඩි": 1949,
      "සිහි": 1950,
      "මාපිය": 1951,
      "සුම්": 1952,
      "දැඩි": 1953,
      "අපහ": 1954,
      "රාම": 1955,
      "බලයට": 1956,
      "ව්වා": 1957,
      "ශ්‍ර": 1958,
      "ගිනි": 1959,
      "අවබෝ": 1960,
      "සංස්": 1961,
      "හදන": 1962,
      "හදන්නේ": 1963,
      "සෙල්ල": 1964,
      "අදහස": 1965,
      "ඇතුළු": 1966,
      "අයිති": 1967,
      "හැමෝටම": 1968,
      "දකින්න": 1969,
      "පුරුදු": 1970,
      "කණගා": 1971,
      "ඉං": 1972,
      "රස්ස": 1973,
      "වහා": 1974,
      "හතර": 1975,
      "විකු": 1976,
      "රිකන්": 1977,
      "හිනා": 1978,
      "පුංචි": 1979,
      "කොහේ": 1980,
      "දෙවි": 1981,
      "දැනට": 1982,
      "බාර": 1983,
      "ලොව": 1984,
      "ඉතාමත්": 1985,
      "දරුවෝ": 1986,
      "මියා": 1987,
      "වරුන්": 1988,
      "තමන්ගෙ": 1989,
      "ආර්ථික": 1990,
      "අල්ලා": 1991,
      "ගනී": 1992,
      "ජු": 1993,
      "පනය": 1994,
      "ලර්": 1995,
      "වතු": 1996,
      "නිසයි": 1997,
      "කොමි": 1998,
      "දානවා": 1999,
      "ල්ලක්": 2000,
      "රයෙක්": 2001,
      "රැකියා": 2002,
      "රෙහි": 2003,
      "ජනතාවගේ": 2004,
      "සිංහ": 2005,
      "පහසු": 2006,
      "වුණේ": 2007,
      "තිබ්බ": 2008,
      "දෙමව්පිය": 2009,
      "අල": 2010,
      "ඇප": 2011,
      "එතන": 2012,
      "කලොත්": 2013,
      "ශී": 2014,
      "වාගේ": 2015,
      "කරමි": 2016,
      "ස්ති": 2017,
      "මින": 2018,
      "කාටත්": 2019,
      "දින්": 2020,
      "දින්න": 2021,
      "මේ": 2022,
      "මොහු": 2023,
      "මොකටද": 2024,
      "මිනිහා": 2025,
      "පැති": 2026,
      "කැප": 2027,
      "තියෙනව": 2028,
      "හින්දා": 2029,
      "කරුණ": 2030,
      "අමාත්": 2031,
      "පමණයි": 2032,
      "වගෙයි": 2033,
      "අවස්ථාව": 2034,
      "අධ්‍යා": 2035,
      "හමුදාව": 2036,
      "ඇඳු": 2037,
      "උතුම්": 2038,
      "ඔප්පු": 2039,
      "චරි": 2040,
      "තක": 2041,
      "තර්": 2042,
      "නඩ": 2043,
      "වළ": 2044,
      "දෙමාපිය": 2045,
      "නාම": 2046,
      "නැතිනම්": 2047,
      "කමෙන්ට්": 2048,
      "සැබෑ": 2049,
      "තිබුණ": 2050,
      "ආදරේ": 2051,
      "ආරක්ෂාව": 2052,
      "මහත්තයා": 2053,
      "දෙවියන්": 2054,
      "ඉතිං": 2055,
      "පවතින": 2056,
      "එල්ල": 2057,
      "පෞ": 2058,
      "ීමේ": 2059,
      "තුළ": 2060,
      "එකතුව": 2061,
      "දිහා": 2062,
      "ප්‍රා": 2063,
      "කුට": 2064,
      "අපගේ": 2065,
      "රුවත්": 2066,
      "පියා": 2067,
      "ඒකයි": 2068,
      "පවුල්": 2069,
      "හාමුදුරුවනේ": 2070,
      "ජීවිතය": 2071,
      "සෑම": 2072,
      "පිළිබඳ": 2073,
      "අනිවාර්ය": 2074,
      "ආවා": 2075,
      "උබ": 2076,
      "උන්ගේ": 2077,
      "ජන්ද": 2078,
      "ටුව": 2079,
      "ණුව": 2080,
      "යන්ට": 2081,
      "ලඟ": 2082,
      "ලෑ": 2083,
      "වෑ": 2084,
      "ත්රි": 2085,
      "විඳි": 2086,
      "රටත්": 2087,
      "ද්ගලික": 2088,
      "නොදන්නා": 2089,
      "තරමට": 2090,
      "ගෙනිය": 2091,
      "දීපු": 2092,
      "ප්රකාශ": 2093,
      "සැම": 2094,
      "ගානේ": 2095,
      "චාරය": 2096,
      "මිනිසුන්ගේ": 2097,
      "හරියටම": 2098,
      "යොමු": 2099,
      "ඉතිහාස": 2100,
      "12": 2101,
      "අසා": 2102,
      "ඉප": 2103,
      "පන්න": 2104,
      "පස්": 2105,
      "බවත්": 2106,
      "මණ්ඩ": 2107,
      "යමක්": 2108,
      "්‍ය": 2109,
      "රුවා": 2110,
      "කාගේ": 2111,
      "දිලා": 2112,
      "ද්දේ": 2113,
      "ගහපු": 2114,
      "බවයි": 2115,
      "ධාර": 2116,
      "තීරණය": 2117,
      "නාවක්": 2118,
      "ඔයාගේ": 2119,
      "ක්‍රිය": 2120,
      "පවුලේ": 2121,
      "ආයෙත්": 2122,
      "සංස්කෘ": 2123,
      "30": 2124,
      "අයින්": 2125,
      "ඉතුරු": 2126,
      "උස්ස": 2127,
      "එහෙත්": 2128,
      "තනය": 2129,
      "පයක්": 2130,
      "කරුවන්": 2131,
      "පාරි": 2132,
      "දාගන්න": 2133,
      "ගෙවන්න": 2134,
      "හදපු": 2135,
      "තොර": 2136,
      "දරුවන්ට": 2137,
      "ංගුවට": 2138,
      "හාමුදුරුවෝ": 2139,
      "සේවයක්": 2140,
      "භාවය": 2141,
      "ඔවුන්ගේ": 2142,
      "කවදා": 2143,
      "ගනන්": 2144,
      "සාමාන්‍ය": 2145,
      "වෘත්": 2146,
      "කිරීමේ": 2147,
      "එහෙනම්": 2148,
      "මිනීම": 2149,
      "අතේ": 2150,
      "ඩී": 2151,
      "නස්": 2152,
      "යන්නෙ": 2153,
      "ෆේ": 2154,
      "වෙළ": 2155,
      "කොල": 2156,
      "මුලු": 2157,
      "සුන්දර": 2158,
      "වෙනස": 2159,
      "අපහාස": 2160,
      "බලන": 2161,
      "පොලී": 2162,
      "පැය": 2163,
      "සැමට": 2164,
      "අනික්": 2165,
      "මෙහෙමත්": 2166,
      "එයාල": 2167,
      "ජාතියක්": 2168,
      "දවසක්": 2169,
      "ඉදන්": 2170,
      "ඉදලා": 2171,
      "ඉන්දියාවේ": 2172,
      "දොස්තරලා": 2173,
      "එ්ක": 2174,
      "විදුලි": 2175,
      "අම": 2176,
      "උපන්": 2177,
      "ගන්ඩ": 2178,
      "රීම": 2179,
      "වුව": 2180,
      "හක්": 2181,
      "ක්ර": 2182,
      "විධ": 2183,
      "මේවගේ": 2184,
      "තියට": 2185,
      "ද්‍ර": 2186,
      "ප්රා": 2187,
      "වෙනුවට": 2188,
      "ට්ටම": 2189,
      ".......": 2190,
      "අවසන්": 2191,
      "ජීව": 2192,
      "තත්ව": 2193,
      "පරම්": 2194,
      "පවුල": 2195,
      "රාජපක්ෂලා": 2196,
      "තෙල්": 2197,
      "අඩංගුවට": 2198,
      "ඉටු": 2199,
      "එතුමා": 2200,
      "ටො": 2201,
      "දෝ": 2202,
      "රාව": 2203,
      "ෆි": 2204,
      "කොන්": 2205,
      "මාණය": 2206,
      "කාපු": 2207,
      "ගන්නා": 2208,
      "බැන": 2209,
      "අපේක්ෂ": 2210,
      "බිම": 2211,
      "තවමත්": 2212,
      "තිබුණා": 2213,
      "ඇවිල්ලා": 2214,
      "ධර්මය": 2215,
      "පුලුවන්ද": 2216,
      "ෆොන්සේ": 2217,
      "අන්න": 2218,
      "අදා": 2219,
      "උද්": 2220,
      "ගාව": 2221,
      "ණිය": 2222,
      "තමු": 2223,
      "වත්ත": 2224,
      "හොත්": 2225,
      "යාල": 2226,
      "හාල්": 2227,
      "මිනිසා": 2228,
      "ගත්තොත්": 2229,
      "ගුරුව": 2230,
      "අවුරුද්ද": 2231,
      "ග්‍ර": 2232,
      "උනාම": 2233,
      "ඉක්මනින්": 2234,
      "එවුන්ට": 2235,
      "ංකු": 2236,
      "ආත්": 2237,
      "චෝද": 2238,
      "දකුණ": 2239,
      "පට්ට": 2240,
      "බිය": 2241,
      "ලමයි": 2242,
      "කියනව": 2243,
      "වැල": 2244,
      "කාරිය": 2245,
      "කිලෝ": 2246,
      "දාපු": 2247,
      "තරම": 2248,
      "ගන්නෙ": 2249,
      "මොළ": 2250,
      "රෝහල්": 2251,
      "ලොක්": 2252,
      "බිල": 2253,
      "වීම්": 2254,
      "කාරයෙක්": 2255,
      "චන්දය": 2256,
      "පසුගිය": 2257,
      "ප්‍රශ්නයක්": 2258,
      "චීන": 2259,
      "පැමිණි": 2260,
      "තේරෙන්නේ": 2261,
      "අවබෝධ": 2262,
      "23": 2263,
      "අහල": 2264,
      "අතින්": 2265,
      "එස්": 2266,
      "එච්චර": 2267,
      "ගසා": 2268,
      "දම": 2269,
      "මුව": 2270,
      "මාව": 2271,
      "ූන්": 2272,
      "කරනව": 2273,
      "වෙතත්": 2274,
      "මිස": 2275,
      "පුහු": 2276,
      "කාර්ය": 2277,
      "ද්දා": 2278,
      "වෙනසක්": 2279,
      "දේවා": 2280,
      "කටු": 2281,
      "කරන්නද": 2282,
      "පැව": 2283,
      "ගියත්": 2284,
      "කෙනෙකු": 2285,
      "මතකයි": 2286,
      "තැනක්": 2287,
      "හදලා": 2288,
      "ග්රහ": 2289,
      "ක්‍රී": 2290,
      "ආරක්ෂක": 2291,
      "උපදෙස්": 2292,
      "යහපත්": 2293,
      "නැත්තම්": 2294,
      "නායකයා": 2295,
      "පුවත්": 2296,
      "ප්රශ්න": 2297,
      "නිවාඩු": 2298,
      "උත්සාහ": 2299,
      "ආගම්": 2300,
      "ඇඟ": 2301,
      "උඩින්": 2302,
      "කයා": 2303,
      "කනවා": 2304,
      "තට": 2305,
      "පහල": 2306,
      "මෛ": 2307,
      "මස්": 2308,
      "මර්": 2309,
      "විලා": 2310,
      "මාරු": 2311,
      "කුරු": 2312,
      "බැංකු": 2313,
      "ව්‍යා": 2314,
      "වෙලාවෙ": 2315,
      "සහතික": 2316,
      "කලත්": 2317,
      "රෙදි": 2318,
      "වෙයිද": 2319,
      "රජයට": 2320,
      "පෙනී": 2321,
      "බ්බ": 2322,
      "දෙනාම": 2323,
      "තිබ්බා": 2324,
      "පිහිටයි": 2325,
      "රෝගීන්": 2326,
      "විරුද්ධව": 2327,
      "කව්රු": 2328,
      "භික්ෂ": 2329,
      "පෞද්ගලික": 2330,
      "අරි": 2331,
      "ඇඳ": 2332,
      "කන්නේ": 2333,
      "පල්": 2334,
      "බහි": 2335,
      "යත්": 2336,
      "‍‍": 2337,
      "ස්තා": 2338,
      "විරුව": 2339,
      "වෙල": 2340,
      "දුකයි": 2341,
      "පාඩු": 2342,
      "රටකට": 2343,
      "යටතේ": 2344,
      "බලලා": 2345,
      "නෑනේ": 2346,
      "යේදී": 2347,
      "මැරෙන්න": 2348,
      "අවංක": 2349,
      "හොඳම": 2350,
      "ජාත්": 2351,
      "තියෙන්න": 2352,
      "හදනවා": 2353,
      "ගෝට": 2354,
      "හොරෙන්": 2355,
      "ර්ථක": 2356,
      "පුරවැසි": 2357,
      "ඉඳන්": 2358,
      "2015": 2359,
      "ඉස්සරහට": 2360,
      "හැකියි": 2361,
      "වාර්තා": 2362,
      "පක්ශ": 2363,
      "අතී": 2364,
      "තයක්": 2365,
      "මගින්": 2366,
      "රථ": 2367,
      "වනු": 2368,
      "විස්තර": 2369,
      "තුන": 2370,
      "හැත්ත": 2371,
      "පිං": 2372,
      "මින්ද": 2373,
      "සුන්": 2374,
      "මෙතුමා": 2375,
      "කුල්": 2376,
      "කුඩා": 2377,
      "නොද": 2378,
      "නොදී": 2379,
      "තාමත්": 2380,
      "ප්රජාතන්": 2381,
      "හිතේ": 2382,
      "බිස්": 2383,
      "කලබල": 2384,
      "සංවිධා": 2385,
      "අනුමත": 2386,
      "දැනගන්න": 2387,
      "සත්‍ය": 2388,
      "ඉඳල": 2389,
      "ධ්‍ය": 2390,
      "සිරිසේන": 2391,
      "ඡන්දය": 2392,
      "ස්තුතියි": 2393,
      "පැමිණ": 2394,
      "පරීක්ෂණ": 2395,
      "ප්රජාතන්ත්ර": 2396,
      "අහු": 2397,
      "ආයි": 2398,
      "ඉරි": 2399,
      "එහා": 2400,
      "ඕව": 2401,
      "කපු": 2402,
      "සමන්": 2403,
      "ම්ම": 2404,
      "නිකම්": 2405,
      "සිද්ද": 2406,
      "මාලි": 2407,
      "නාට": 2408,
      "සාම": 2409,
      "දේව": 2410,
      "බලු": 2411,
      "ගොස්": 2412,
      "තාවය": 2413,
      "සහෝ": 2414,
      "හිතන": 2415,
      "හිතෙන්නේ": 2416,
      "නියමයි": 2417,
      "පාරක්": 2418,
      "ආණ්ඩුවට": 2419,
      "තැනක": 2420,
      "දකින": 2421,
      "අධ්යා": 2422,
      "දිගටම": 2423,
      "ස්ථාන": 2424,
      "ලැබෙන්නේ": 2425,
      "නිකං": 2426,
      "බොරුවට": 2427,
      "අපහසු": 2428,
      "අදි": 2429,
      "ආවරණ": 2430,
      "උනොත්": 2431,
      "පත්ත": 2432,
      "පරණ": 2433,
      "යනු": 2434,
      "රඟ": 2435,
      "රතු": 2436,
      "වලි": 2437,
      "සීම": 2438,
      "ෙයි": 2439,
      "න්නම්": 2440,
      "විශිෂ්": 2441,
      "වෙත": 2442,
      "ද්‍ය": 2443,
      "දැම": 2444,
      "මොහො": 2445,
      "මිනිස්": 2446,
      "දීර්": 2447,
      "පැට": 2448,
      "පැවැ": 2449,
      "අයියෝ": 2450,
      "පෙට්": 2451,
      "බාල": 2452,
      "වරයා": 2453,
      "මේකේ": 2454,
      "හෝට": 2455,
      "බලාගන්න": 2456,
      "පරිස්ස": 2457,
      "අඩුයි": 2458,
      "කීයක්": 2459,
      "සමාජය": 2460,
      "උඹල": 2461,
      "පෙනෙන්නේ": 2462,
      "අතට": 2463,
      "නිදහස": 2464,
      "උත්ස": 2465,
      "දැම්මා": 2466,
      "නායකයෙක්": 2467,
      "පූර්ණ": 2468,
      "සහෝදර": 2469,
      "අට": 2470,
      "අස්": 2471,
      "ඇදිරි": 2472,
      "ඩය": 2473,
      "දයක්": 2474,
      "නතර": 2475,
      "භූ": 2476,
      "මල්ල": 2477,
      "රකි": 2478,
      "වසං": 2479,
      "සරය": 2480,
      "ියෙන්": 2481,
      "කියවන්න": 2482,
      "හිටි": 2483,
      "පිල": 2484,
      "කාරී": 2485,
      "මුලින්ම": 2486,
      "දැනුව": 2487,
      "වෙනම": 2488,
      "වෙලාව": 2489,
      "ගිලා": 2490,
      "බොන්න": 2491,
      "හොදම": 2492,
      "තැනම": 2493,
      "ජිවත්": 2494,
      "හදව": 2495,
      "ගත්තු": 2496,
      "ර්ථනා": 2497,
      "ජ්ජා": 2498,
      "ඳිරි": 2499,
      "අධිකරණ": 2500,
      "පාර්ලිමේන්තු": 2501,
      "ස්තූ": 2502,
      "ගිහිල්ලා": 2503,
      "වංචා": 2504,
      "ක්රිකට්": 2505,
      "නිරෝධා": 2506,
      "ජීවිතේ": 2507,
      "14": 2508,
      "16": 2509,
      "ංගල": 2510,
      "ආතල්": 2511,
      "දරා": 2512,
      "ඵල": 2513,
      "මරු": 2514,
      "ශක": 2515,
      "වැල්": 2516,
      "පාඩුව": 2517,
      "මානව": 2518,
      "කාමී": 2519,
      "කුහ": 2520,
      "සාර": 2521,
      "කටම": 2522,
      "ගෙනත්": 2523,
      "රියාව": 2524,
      "තේරෙනවා": 2525,
      "අයටත්": 2526,
      "කාරයො": 2527,
      "ගෑනි": 2528,
      "වෛද්‍ය": 2529,
      "මාර්ගය": 2530,
      "උපාධි": 2531,
      "ආර්ථිකය": 2532,
      "සෞඛ්ය": 2533,
      "සෙල්ලම්": 2534,
      "වහාම": 2535,
      "ෆොන්සේකා": 2536,
      "අං": 2537,
      "අහෝ": 2538,
      "ආශ්": 2539,
      "ඉවස": 2540,
      "ඊයේ": 2541,
      "උතු": 2542,
      "එරෙහි": 2543,
      "ඩෙ": 2544,
      "යනව": 2545,
      "සති": 2546,
      "සභා": 2547,
      "හ්": 2548,
      "න්නට": 2549,
      "ත්‍රී": 2550,
      "කරන්": 2551,
      "විෂ": 2552,
      "මිලියන": 2553,
      "තියලා": 2554,
      "දිපති": 2555,
      "ද්ර": 2556,
      "නොමැති": 2557,
      "තරඟ": 2558,
      "ටියක්": 2559,
      "මිනිස්සුන්ගේ": 2560,
      "පියවර": 2561,
      "තියෙනවද": 2562,
      "පරිදි": 2563,
      "වීමක්": 2564,
      "සම්පත්": 2565,
      "සත්තු": 2566,
      "ආණ්ඩුවේ": 2567,
      "පතමි": 2568,
      "දැක්කා": 2569,
      "ඉදිරියේ": 2570,
      "අන්තිම": 2571,
      "පොලිසියට": 2572,
      "ප්රතිපත්": 2573,
      "ගොල්ලෝ": 2574,
      "තාත්තා": 2575,
      "දෙයිය": 2576,
      "දරුවා": 2577,
      "නිලධාරීන්": 2578,
      "අදාළ": 2579,
      "අක්": 2580,
      "අපා": 2581,
      "ඇඳිරි": 2582,
      "උත්ත": 2583,
      "පෘ": 2584,
      "සහිත": 2585,
      "හුව": 2586,
      "න්තර": 2587,
      "න්නු": 2588,
      "ක්ති": 2589,
      "කරනු": 2590,
      "ස්තුව": 2591,
      "නිෂ්": 2592,
      "විඳ": 2593,
      "විභා": 2594,
      "වැටි": 2595,
      "මිරිස්": 2596,
      "කොරො": 2597,
      "දෙස": 2598,
      "වෙනකම්": 2599,
      "වෙනවද": 2600,
      "න්දුව": 2601,
      "මොනව": 2602,
      "බලපෑ": 2603,
      "බැවින්": 2604,
      "ව්ය": 2605,
      "වේග": 2606,
      "ලුවා": 2607,
      "හිතෙන": 2608,
      "පෙන්නේ": 2609,
      "බිලා": 2610,
      "පිරිසිදු": 2611,
      "කිසිදු": 2612,
      "චාර්ය": 2613,
      "තොටු": 2614,
      "සත්ය": 2615,
      "ඔහුගේ": 2616,
      "ලැබෙනවා": 2617,
      "බුද්ධා": 2618,
      "වහන්සේට": 2619,
      "................": 2620,
      "වටිනවා": 2621,
      "ප්‍රශ්නය": 2622,
      "තෙරුවන්": 2623,
      "ඉඩම්": 2624,
      "දෙමළ": 2625,
      "ත්වයක්": 2626,
      "රත්න": 2627,
      "බහුතරයක්": 2628,
      "කණගාටු": 2629,
      "40": 2630,
      "ංච": 2631,
      "අන්ද": 2632,
      "ටද": 2633,
      "පාව": 2634,
      "ලයේ": 2635,
      "වනේ": 2636,
      "ළිය": 2637,
      "ෙනු": 2638,
      "තිබේ": 2639,
      "විල්": 2640,
      "හිස්": 2641,
      "මිට": 2642,
      "පාරට": 2643,
      "කොටි": 2644,
      "දෙයි": 2645,
      "දෙකම": 2646,
      "සුන": 2647,
      "වුවා": 2648,
      "යාම": 2649,
      "කුනු": 2650,
      "ගෙඩිය": 2651,
      "ව්වේ": 2652,
      "ඉන්නවද": 2653,
      "නෙවේ": 2654,
      "ශ්ය": 2655,
      "අයිය": 2656,
      "සියළු": 2657,
      "හිතලා": 2658,
      "කළු": 2659,
      "ලියේ": 2660,
      "දෙන්නා": 2661,
      "මොකක්": 2662,
      "වර්ග": 2663,
      "පහර": 2664,
      "කිව්වට": 2665,
      "කිරීමක්": 2666,
      "ආණ්ඩු": 2667,
      "පුරවැසිය": 2668,
      "සරත්": 2669,
      "වරුන්ට": 2670,
      "නෝනා": 2671,
      "පෙන්නන්න": 2672,
      "දෙමල": 2673,
      "විශේෂයෙන්": 2674,
      "ගිහිල්ල": 2675,
      "ඩොලර්": 2676,
      "13": 2677,
      "18": 2678,
      "අභ": 2679,
      "අනව": 2680,
      "ඥා": 2681,
      "තබා": 2682,
      "දමා": 2683,
      "නිහ": 2684,
      "විස්": 2685,
      "හිඟ": 2686,
      "මානය": 2687,
      "එකක": 2688,
      "කුමක්": 2689,
      "ීමෙන්": 2690,
      "බලන්නේ": 2691,
      "බලමු": 2692,
      "මහත්ම": 2693,
      "හොඳටම": 2694,
      "මන්ත්රී": 2695,
      "සංචාර": 2696,
      "පිරිස": 2697,
      "සිංග": 2698,
      "ගමන": 2699,
      "අහුව": 2700,
      "පහත්": 2701,
      "තුරන්": 2702,
      "පෝට්": 2703,
      "හරහා": 2704,
      "කව්ද": 2705,
      "ආගමික": 2706,
      "බිරිඳ": 2707,
      "අරා": 2708,
      "ආරක්": 2709,
      "ආහාර": 2710,
      "උරු": 2711,
      "දත්": 2712,
      "නමක්": 2713,
      "සරු": 2714,
      "විසු": 2715,
      "ගේම": 2716,
      "මිත": 2717,
      "දුන": 2718,
      "ෙන්ඩ": 2719,
      "කිහි": 2720,
      "දිනුව": 2721,
      "මෙවර": 2722,
      "යාන": 2723,
      "නොකරන": 2724,
      "බලනවා": 2725,
      "පොල": 2726,
      "යුරෝ": 2727,
      "පැර": 2728,
      "මැත්ත": 2729,
      "සියාවේ": 2730,
      "අවධා": 2731,
      "දේශීය": 2732,
      "තේරෙන": 2733,
      "රෙයි": 2734,
      "ඒකත්": 2735,
      "අපිටත්": 2736,
      "දේශපාලුව": 2737,
      "යෝජනා": 2738,
      "පන්ස": 2739,
      "දැනටම": 2740,
      "දෙකේ": 2741,
      "ළමයින්ට": 2742,
      "ඩියෝ": 2743,
      "පොරොන්දු": 2744,
      "පොලීසිය": 2745,
      "වසංගත": 2746,
      "අස": 2747,
      "ආකාරය": 2748,
      "ආත්ම": 2749,
      "ඇය": 2750,
      "ඇත්": 2751,
      "එන්නෙ": 2752,
      "ඒව": 2753,
      "ධනා": 2754,
      "නූ": 2755,
      "පණ": 2756,
      "ෂන්": 2757,
      "ැක්": 2758,
      "විත්": 2759,
      "මාල": 2760,
      "මුඛ": 2761,
      "වුනොත්": 2762,
      "දානය": 2763,
      "දැයි": 2764,
      "සේරම": 2765,
      "ශ්‍ය": 2766,
      "ගැනීමේ": 2767,
      "රුවෝ": 2768,
      "මැරු": 2769,
      "මැරුණ": 2770,
      "ගික": 2771,
      "කයන්ගේ": 2772,
      "හිතට": 2773,
      "වයස": 2774,
      "සමාව": 2775,
      "කාලකණ්": 2776,
      "උන්ගෙ": 2777,
      "ගියාට": 2778,
      "අනතු": 2779,
      "ලෙඩේ": 2780,
      "වියදම": 2781,
      "ලස්සනයි": 2782,
      "ඉක්මනට": 2783,
      "අමාරුයි": 2784,
      "රැකියාවක්": 2785,
      "කරුණාකර": 2786,
      "එකතුවෙලා": 2787,
      "දැනුවත්": 2788,
      "අර්": 2789,
      "ආපහු": 2790,
      "ඇට": 2791,
      "ඊළඟ": 2792,
      "ඕනා": 2793,
      "ගං": 2794,
      "ඝෝ": 2795,
      "තරු": 2796,
      "දනය": 2797,
      "නන්": 2798,
      "පස": 2799,
      "පටි": 2800,
      "හඳු": 2801,
      "ෙම": 2802,
      "වාසිය": 2803,
      "කොම්": 2804,
      "මාධ්‍ය": 2805,
      "කුමාර": 2806,
      "හාරය": 2807,
      "අවසර": 2808,
      "වෙන්නත්": 2809,
      "ප්‍රිය": 2810,
      "මොකද්ද": 2811,
      "වැඩිපුර": 2812,
      "පන්සල්": 2813,
      "මොනතරම්": 2814,
      "සම්පූර්ණ": 2815,
      "යහපාලනය": 2816,
      "සම්බන්ද": 2817,
      "පවතී": 2818,
      "කර්ම": 2819,
      "බල්ලෝ": 2820,
      "උසාව": 2821,
      "කල්පනා": 2822,
      "යුද්ධය": 2823,
      "වචන": 2824,
      "රස්සාව": 2825,
      "ආවත්": 2826,
      "උබලා": 2827,
      "උවම": 2828,
      "එංගල": 2829,
      "ඔහේ": 2830,
      "කදු": 2831,
      "කථා": 2832,
      "ජෙ": 2833,
      "ණේ": 2834,
      "තද": 2835,
      "තෑ": 2836,
      "වපු": 2837,
      "ෂ්ය": 2838,
      "වාම": 2839,
      "හික්": 2840,
      "කොහො": 2841,
      "ද්දිය": 2842,
      "දාස": 2843,
      "සාක්": 2844,
      "සාර්ථක": 2845,
      "වලක්": 2846,
      "වැඩට": 2847,
      "අපිව": 2848,
      "බලවත්": 2849,
      "බැඳ": 2850,
      "යුද්දෙ": 2851,
      "ගොං": 2852,
      "අවම": 2853,
      "සැන": 2854,
      "වීමේ": 2855,
      "න්තය": 2856,
      "හදල": 2857,
      "වැඩිම": 2858,
      "පරිසරය": 2859,
      "භාර": 2860,
      "සතුන්": 2861,
      "බුදුන්": 2862,
      "මෙයාල": 2863,
      "පෙනෙන": 2864,
      "සමහරවිට": 2865,
      "අත්අඩංගුවට": 2866,
      "පැත්තට": 2867,
      "හාමුදුරුවරු": 2868,
      "ඇවිල්ල": 2869,
      "මරන්න": 2870,
      "වගකිව": 2871,
      "යොදා": 2872,
      "කැමතියි": 2873,
      "අවස්ථාවක්": 2874,
      "ුවෙලා": 2875,
      "අනාගතය": 2876,
      "හොයාගන්න": 2877,
      "චෝදනා": 2878,
      "ආදර": 2879,
      "ඉක්": 2880,
      "උත්තර": 2881,
      "ඡා": 2882,
      "ජල": 2883,
      "ලෙන්": 2884,
      "වන්ත": 2885,
      "වෙද": 2886,
      "සිර": 2887,
      "පාතා": 2888,
      "සුපිරි": 2889,
      "යක්ෂ": 2890,
      "දැකලා": 2891,
      "වලදී": 2892,
      "ව්ව": 2893,
      "මහන්": 2894,
      "ගොඩා": 2895,
      "අයියා": 2896,
      "තාවක්": 2897,
      "සහය": 2898,
      "සහෝද": 2899,
      "රෝහ": 2900,
      "හොඳින්": 2901,
      "රැවට": 2902,
      "ගුරු": 2903,
      "පිරිත්": 2904,
      "වහල්": 2905,
      "උන්ව": 2906,
      "දුන්නොත්": 2907,
      "යහපාලන": 2908,
      "අයිතිය": 2909,
      "විනාස": 2910,
      "දඩුවම": 2911,
      "දවස්වල": 2912,
      "බරපත": 2913,
      "යැයි": 2914,
      "සතුටක්": 2915,
      "විකුන": 2916,
      "පහසුකම්": 2917,
      "පරම්පර": 2918,
      "අක": 2919,
      "අක්ක": 2920,
      "ආසන": 2921,
      "ආධාර": 2922,
      "එවැනි": 2923,
      "කඳු": 2924,
      "නර": 2925,
      "නමින්": 2926,
      "බර්": 2927,
      "මව්": 2928,
      "වන්ද": 2929,
      "සළ": 2930,
      "සමි": 2931,
      "නිව්": 2932,
      "විකාර": 2933,
      "හිරි": 2934,
      "දුර්": 2935,
      "කාරණ": 2936,
      "එකඟ": 2937,
      "දෙපාර්": 2938,
      "මුං": 2939,
      "මුතු": 2940,
      "යාලුව": 2941,
      "ගෙයි": 2942,
      "හානිය": 2943,
      "මොවුන්": 2944,
      "රුවේ": 2945,
      "ගොවි": 2946,
      "ඔබතුමාට": 2947,
      "මැරෙන": 2948,
      "සියා": 2949,
      "ලේසිය": 2950,
      "හුවා": 2951,
      "සහන": 2952,
      "ගාර": 2953,
      "වහල්ලු": 2954,
      "රාජ්‍ය": 2955,
      "පහළ": 2956,
      "එයාගේ": 2957,
      "ඒවාට": 2958,
      "මෙයාලා": 2959,
      "ජනාධිපතිවරණ": 2960,
      "දැනගෙන": 2961,
      "අත්දැ": 2962,
      "ආයෙ": 2963,
      "ඉදල": 2964,
      "කර්මය": 2965,
      "අම්මලා": 2966,
      "හේතුවක්": 2967,
      "හිතාගෙන": 2968,
      "කාර්යාල": 2969,
      "ලෝකෙට": 2970,
      "නවත්වන්න": 2971,
      "භාවිතා": 2972,
      "කොමිස්": 2973,
      "බිස්නස්": 2974,
      "60": 2975,
      "අවි": 2976,
      "ඇතැ": 2977,
      "ඕකට": 2978,
      "දඩ": 2979,
      "නන්ද": 2980,
      "පත්තර": 2981,
      "බළ": 2982,
      "යම": 2983,
      "ලයට": 2984,
      "සතා": 2985,
      "හවස": 2986,
      "ේම": 2987,
      "න්ස්": 2988,
      "ත්‍රි": 2989,
      "තුමන්": 2990,
      "නැතත්": 2991,
      "පිස්ස": 2992,
      "දුටු": 2993,
      "දුමින්ද": 2994,
      "පුර්ණ": 2995,
      "කාරි": 2996,
      "දේ": 2997,
      "නොදන්න": 2998,
      "කරන්නට": 2999,
      "බැද": 3000,
      "ව්‍ය": 3001,
      "සහයෝ": 3002,
      "ලෙඩ්": 3003,
      "කො": 3004,
      "සැමියා": 3005,
      "අදත්": 3006,
      "ලියන්න": 3007,
      "දෙන්නෙක්": 3008,
      "හැමදේම": 3009,
      "ජිනේ": 3010,
      "දහස්": 3011,
      "මුදලින්": 3012,
      "පරිසර": 3013,
      "න්ඩ්": 3014,
      "තොරව": 3015,
      "විදිහ": 3016,
      "එයාලා": 3017,
      "මෙයාට": 3018,
      "පතක්": 3019,
      "නිදහසේ": 3020,
      "දවසට": 3021,
      "ඉතිරි": 3022,
      "හැකියාව": 3023,
      "ධාරීන්": 3024,
      "රූප": 3025,
      "හිතාගන්න": 3026,
      "අවුලක්": 3027,
      "වාසනාවන්ත": 3028,
      "ප්‍රතිචාර": 3029,
      "දර්ශනය": 3030,
      "පළාත්": 3031,
      "බේරගන්න": 3032,
      "ලෙඩ්ඩු": 3033,
      "එයට": 3034,
      "ඒවට": 3035,
      "ගමට": 3036,
      "ගනින්": 3037,
      "චර්ය": 3038,
      "ජරා": 3039,
      "ණයක්": 3040,
      "තෘ": 3041,
      "රං": 3042,
      "සන්ත": 3043,
      "ළඳ": 3044,
      "ගේන්න": 3045,
      "හිනාව": 3046,
      "හිමිය": 3047,
      "වැස්ස": 3048,
      "දුරටත්": 3049,
      "පාස": 3050,
      "පාදන": 3051,
      "තියල": 3052,
      "යාමට": 3053,
      "සාක": 3054,
      "සාවි": 3055,
      "ල්ලට": 3056,
      "හෙළ": 3057,
      "හො": 3058,
      "රුවට": 3059,
      "අයව": 3060,
      "මැදි": 3061,
      "ප්‍රමි": 3062,
      "කෙළ": 3063,
      "පත්තු": 3064,
      "නියා": 3065,
      "රෙද්ද": 3066,
      "පුළුව": 3067,
      "ණික": 3068,
      "ජනාදිපති": 3069,
      "කිව්වත්": 3070,
      "ෂ්ඨ": 3071,
      "මහින්දට": 3072,
      "සම්මත": 3073,
      "කොමෙන්ට්": 3074,
      "මහත්තය": 3075,
      "අල්ලන්න": 3076,
      "නොවේද": 3077,
      "කවුරුවත්": 3078,
      "වුණාට": 3079,
      "පුද්ගලයා": 3080,
      "මනුස්සයෙක්": 3081,
      "සම්බන්ධයෙන්": 3082,
      "දැනුම": 3083,
      "ෆොටෝ": 3084,
      "ළමයෙක්": 3085,
      "නරකද": 3086,
      "ජොබ්": 3087,
      "තිරිසන්": 3088,
      "ඉංග්": 3089,
      "තොරතුරු": 3090,
      "ගුරුවරු": 3091,
      "කුහක": 3092,
      "ඉක්මන්": 3093,
      "ගොඩාක්": 3094,
      "ඒකා": 3095,
      "ඩේ": 3096,
      "ඩෝ": 3097,
      "ණන්": 3098,
      "තම්": 3099,
      "පලා": 3100,
      "බබා": 3101,
      "භෝ": 3102,
      "යෑ": 3103,
      "වො": 3104,
      "වරය": 3105,
      "ළමා": 3106,
      "ො": 3107,
      "ම්භ": 3108,
      "තිමත්": 3109,
      "විලි": 3110,
      "විපක්ෂ": 3111,
      "මේව": 3112,
      "වැද්ද": 3113,
      "මිත්": 3114,
      "මිනී": 3115,
      "දුරක": 3116,
      "පාන්": 3117,
      "කොහෙන්": 3118,
      "ගෙනා": 3119,
      "බලෙන්": 3120,
      "නුඹ": 3121,
      "නෙට": 3122,
      "ගොවිය": 3123,
      "පාලනයක්": 3124,
      "කොටම": 3125,
      "කොටසක්": 3126,
      "ප්‍රංශ": 3127,
      "බොල": 3128,
      "ලොක": 3129,
      "ගහන්නේ": 3130,
      "හිටියොත්": 3131,
      "චාරක": 3132,
      "විදින": 3133,
      "අනුර": 3134,
      "තත්ත්වය": 3135,
      "ඇමරිකන්": 3136,
      "වහන්සේලා": 3137,
      "ඉඳි": 3138,
      "ගණන": 3139,
      "කාටද": 3140,
      "සිටීම": 3141,
      "අපරාදේ": 3142,
      "???": 3143,
      "කොල්ලෝ": 3144,
      "සමාජයේ": 3145,
      "අවස්ථා": 3146,
      "ඉන්දියාව": 3147,
      "මුහුණ": 3148,
      "මුහුණු": 3149,
      "විසදු": 3150,
      "තීරණයක්": 3151,
      "ඝායු": 3152,
      "ස්වභාව": 3153,
      "ක්රමය": 3154,
      "උද්ඝෝ": 3155,
      "ග්‍රහ": 3156,
      "අතුරු": 3157,
      "ඇන්": 3158,
      "ඇරිය": 3159,
      "කපා": 3160,
      "ජවි": 3161,
      "තමුන්": 3162,
      "නගි": 3163,
      "බල්ලා": 3164,
      "මද": 3165,
      "යනය": 3166,
      "ෆෝ": 3167,
      "ේද": 3168,
      "ේවා": 3169,
      "යින්ට": 3170,
      "ුවොත්": 3171,
      "කියයි": 3172,
      "හිරු": 3173,
      "පාඨ": 3174,
      "තියෙන්": 3175,
      "තියනවද": 3176,
      "කාගෙ": 3177,
      "ර්ම": 3178,
      "වුස්": 3179,
      "අපෙ": 3180,
      "වලත්": 3181,
      "ගැන්": 3182,
      "යටම": 3183,
      "ගෙට": 3184,
      "පොත්": 3185,
      "ගැනත්": 3186,
      "ගොබ්බ": 3187,
      "සහභා": 3188,
      "රෝහල": 3189,
      "රෝගය": 3190,
      "ප්‍රණා": 3191,
      "ගානෙ": 3192,
      "අරක්කු": 3193,
      "දන්නෑ": 3194,
      "ගත්තට": 3195,
      "ජිවිත": 3196,
      "දහන්": 3197,
      "මුදලක්": 3198,
      "මුදලට": 3199,
      "වහගෙන": 3200,
      "පන්සල": 3201,
      "අහලා": 3202,
      "එයාට": 3203,
      "ක්‍රමය": 3204,
      "ගෑණු": 3205,
      "ංගල්": 3206,
      "දවසේ": 3207,
      "වෛරස": 3208,
      "අනතුරු": 3209,
      "සිදුවන": 3210,
      "තියාගන්න": 3211,
      "වැඩියෙන්": 3212,
      "මහතාගේ": 3213,
      "ත්රස්ත": 3214,
      "පොහොට්ටු": 3215,
      "දුකක්": 3216,
      "එළියට": 3217,
      "නිර්මාණ": 3218,
      "පොහොට්ටුවට": 3219,
      "ආවොත්": 3220,
      "පෙරේරා": 3221,
      "ලංකාදීපයට": 3222,
      "ගෞරව": 3223,
      "ෆේස්": 3224,
      "ස්තූතියි": 3225,
      "දැනටමත්": 3226,
      "අස්ස": 3227,
      "උසාවි": 3228,
      "ඔච්චර": 3229,
      "ඖෂ": 3230,
      "කප්": 3231,
      "ගති": 3232,
      "මච": 3233,
      "මළ": 3234,
      "මත්ත": 3235,
      "මෙන්ම": 3236,
      "යථා": 3237,
      "රජා": 3238,
      "ලූ": 3239,
      "සප": 3240,
      "හිය": 3241,
      "ැති": 3242,
      "ෙට": 3243,
      "වාර": 3244,
      "නිරෝගී": 3245,
      "විද්ය": 3246,
      "මිතු": 3247,
      "නාට්": 3248,
      "නාමල්": 3249,
      "වුනු": 3250,
      "දායි": 3251,
      "දානම්": 3252,
      "සාධ": 3253,
      "නොහැක": 3254,
      "තාර": 3255,
      "ගෙඩි": 3256,
      "පැන්": 3257,
      "මැච්": 3258,
      "ප්රධාන": 3259,
      "කියලද": 3260,
      "සැළ": 3261,
      "දෙනු": 3262,
      "මේකත්": 3263,
      "ගත්තම": 3264,
      "ගොඩනැගි": 3265,
      "තිබිය": 3266,
      "ජයග්රහ": 3267,
      "ළින්": 3268,
      "කට්ට": 3269,
      "මේවාට": 3270,
      "ලොකුම": 3271,
      "කීය": 3272,
      "කලාට": 3273,
      "චිත්‍ර": 3274,
      "දොස්": 3275,
      "ඇතුලට": 3276,
      "පැත්තකට": 3277,
      "එනකොට": 3278,
      "දෙනාට": 3279,
      "මේන්තුව": 3280,
      "අධිකරණය": 3281,
      "සිද්ධිය": 3282,
      "ලැබුන": 3283,
      "ලයිට්": 3284,
      "ප්රශ්නයක්": 3285,
      "ආඩම්බරයක්": 3286,
      "පරීක්ෂ": 3287,
      "කණ්ඩා": 3288,
      "සංවර්ධනය": 3289,
      "සංස්කෘතිය": 3290,
      "අතීත": 3291,
      "උත්සව": 3292,
      "අහෝසි": 3293,
      "ප්‍රණාමය": 3294,
      "අගේ": 3295,
      "අරු": 3296,
      "අකු": 3297,
      "ආදී": 3298,
      "උගන්": 3299,
      "දගල": 3300,
      "දකුණු": 3301,
      "පතිය": 3302,
      "පයේ": 3303,
      "මතුව": 3304,
      "යාව": 3305,
      "ලන": 3306,
      "වන්නෙ": 3307,
      "සාව": 3308,
      "න්ති": 3309,
      "නිතිය": 3310,
      "නිශ්": 3311,
      "විවේ": 3312,
      "විමල්": 3313,
      "පිටිය": 3314,
      "පිටු": 3315,
      "දුෂ්": 3316,
      "පාලි": 3317,
      "තියනව": 3318,
      "ලිලා": 3319,
      "දෙමු": 3320,
      "දිස්": 3321,
      "ෙක්ට": 3322,
      "හෙළි": 3323,
      "මොනා": 3324,
      "බලපන්": 3325,
      "ලේකම්": 3326,
      "මිනිස්සුන්ව": 3327,
      "හිතනවා": 3328,
      "රයෝ": 3329,
      "ප්‍රයෝජන": 3330,
      "ගානට": 3331,
      "කැමැත්ත": 3332,
      "සංචාරක": 3333,
      "දෙයක්ම": 3334,
      "පරිප්පු": 3335,
      "හිටියෙ": 3336,
      "රජයෙන්": 3337,
      "ඔයාලා": 3338,
      "නීතියෙන්": 3339,
      "සතුටින්": 3340,
      "උඹලා": 3341,
      "චන්දේ": 3342,
      "පෙරදිග": 3343,
      "විශ්රාම": 3344,
      "පළමුව": 3345,
      "ගණනක්": 3346,
      "ජාතියට": 3347,
      "ජාතියේ": 3348,
      "දෙවියන්ගේ": 3349,
      "පිලිබ": 3350,
      "මනුස්සයා": 3351,
      "කාන්තාවක්": 3352,
      "සඳහන්": 3353,
      "පෙන්වන්න": 3354,
      "වැටෙන": 3355,
      "උපාධ": 3356,
      "දඬුවම": 3357,
      "පාර්ලිමේන්තුවේ": 3358,
      "ඉහළ": 3359,
      "පාස්කු": 3360,
      "බූරු": 3361,
      "ෂිත": 3362,
      "අවසාන": 3363,
      "ළමයා": 3364,
      "විරෝධ": 3365,
      "රිකානු": 3366,
      "දකුණේ": 3367,
      "පැවැත්": 3368,
      "5000": 3369,
      "ආර්": 3370,
      "ආදාය": 3371,
      "උගේ": 3372,
      "එල්": 3373,
      "ඕනැ": 3374,
      "ඕස්ට්": 3375,
      "කං": 3376,
      "ධනය": 3377,
      "බන": 3378,
      "මට්ට": 3379,
      "හයි": 3380,
      "ුවර්": 3381,
      "නින්ද": 3382,
      "නිකුත්": 3383,
      "විවිධ": 3384,
      "හැං": 3385,
      "දුනා": 3386,
      "කොතරම්": 3387,
      "මාගේ": 3388,
      "දෙකට": 3389,
      "නාමය": 3390,
      "මුකුත්": 3391,
      "රටටම": 3392,
      "දැකල": 3393,
      "ගැනි": 3394,
      "නුම්": 3395,
      "වේශ": 3396,
      ".........": 3397,
      "මැයි": 3398,
      "පෙල": 3399,
      "ජාතී": 3400,
      "කළොත්": 3401,
      "වීඩියෝ": 3402,
      "සමත්": 3403,
      "තිබුනත්": 3404,
      "වහලා": 3405,
      "පේන්නේ": 3406,
      "ගීත": 3407,
      "ෂ්‍ය": 3408,
      "වාහනය": 3409,
      "මෙයාගේ": 3410,
      "එක්කෝ": 3411,
      "පෙන්නලා": 3412,
      "පුද්ගලයෙක්": 3413,
      "රන්ජන්": 3414,
      "දැම්ම": 3415,
      "ස්ථානය": 3416,
      "තහවුරු": 3417,
      "විසඳු": 3418,
      "සෙනග": 3419,
      "බැලුවොත්": 3420,
      "ආඩම්බරයි": 3421,
      "හැදුවේ": 3422,
      "කිරීම්": 3423,
      "රැකියාව": 3424,
      "පවත්වාගෙන": 3425,
      "ඇරලා": 3426,
      "ටෙස්ට්": 3427,
      "පාඩම්": 3428,
      "නඩත්තු": 3429,
      "එරෙහිව": 3430,
      "කොරොනා": 3431,
      "නිව්ස්": 3432,
      "ජවිපෙ": 3433,
      "ඖෂධ": 3434,
      "අඹ": 3435,
      "අභි": 3436,
      "ආයේ": 3437,
      "ආසයි": 3438,
      "උණු": 3439,
      "කසි": 3440,
      "ගනු": 3441,
      "වසා": 3442,
      "වහල": 3443,
      "ශෝ": 3444,
      "සද්ද": 3445,
      "හම්": 3446,
      "නිමල්": 3447,
      "විනය": 3448,
      "මේකෙ": 3449,
      "ගේම්": 3450,
      "තුමිය": 3451,
      "වෙමු": 3452,
      "සිතා": 3453,
      "සිද්දිය": 3454,
      "මාසෙ": 3455,
      "දිත": 3456,
      "හොදින්": 3457,
      "යක්ද": 3458,
      "මෙසේ": 3459,
      "නොවේවා": 3460,
      "කටත්": 3461,
      "රාත්": 3462,
      "රාජිත": 3463,
      "වෙලාද": 3464,
      "නවී": 3465,
      "කමයි": 3466,
      "ලොක්ක": 3467,
      "දෙන්නම": 3468,
      "ගුටි": 3469,
      "දේශපාලකයෝ": 3470,
      "කිසිවක්": 3471,
      "හේතු": 3472,
      "භාණ්ඩ": 3473,
      "නීතියට": 3474,
      "තොට": 3475,
      "පේන්න": 3476,
      "සම්පුර්ණ": 3477,
      "මෙයාලට": 3478,
      "දොර": 3479,
      "ශාස": 3480,
      "එක්කෙනෙක්": 3481,
      "ගම්පහ": 3482,
      "ළමයින්": 3483,
      "පස්සෙන්": 3484,
      "මහතාට": 3485,
      "නිලධා": 3486,
      "වෙන්නෙත්": 3487,
      "සටහ": 3488,
      "දූෂණය": 3489,
      "1000": 3490,
      "කෙල්ලෝ": 3491,
      "ඉස්කෝලෙ": 3492,
      "ආදර්ශයක්": 3493,
      "ලැජ්ජයි": 3494,
      "විද්‍යාල": 3495,
      "පාඩමක්": 3496,
      "අමාත්ය": 3497,
      "ක්‍රීඩ": 3498,
      "විභාග": 3499,
      "සාක්කි": 3500,
      "බරපතල": 3501,
      "500": 3502,
      "අසාධාරණ": 3503,
      "ආකාර": 3504,
      "ඇහැ": 3505,
      "එයින්": 3506,
      "කලෙ": 3507,
      "නමි": 3508,
      "බණ": 3509,
      "රල්": 3510,
      "රතන": 3511,
      "ලකුණු": 3512,
      "සභාව": 3513,
      "ුවා": 3514,
      "න්නා": 3515,
      "ක්රී": 3516,
      "නිව": 3517,
      "නිවාස": 3518,
      "නිතරම": 3519,
      "හැදෙන": 3520,
      "වැළ": 3521,
      "දුන්නෙ": 3522,
      "දාට": 3523,
      "දාන්නේ": 3524,
      "තරා": 3525,
      "රාන්": 3526,
      "ගෙම": 3527,
      "න්දුවක්": 3528,
      "මිනිහට": 3529,
      "බලපා": 3530,
      "බැසිල්": 3531,
      "බැංක": 3532,
      "නෙත්": 3533,
      "ට්ටි": 3534,
      "නිසාද": 3535,
      "ප්රසිද්ධ": 3536,
      "කියලත්": 3537,
      "බොන": 3538,
      "බිල්": 3539,
      "මේකෙන්": 3540,
      "කලක්": 3541,
      "නියම්": 3542,
      "බේරු": 3543,
      "සමර": 3544,
      "වසරක්": 3545,
      "අනිවාර්": 3546,
      "නාවෙන්": 3547,
      "ඔයාල": 3548,
      "වර්ජන": 3549,
      "කිව්වෙ": 3550,
      "පේන": 3551,
      "අනුන්ගේ": 3552,
      "කරුණු": 3553,
      "දෙනාටම": 3554,
      "අල්ලපු": 3555,
      "නැත්තං": 3556,
      "නැත්තෙ": 3557,
      "වාදීන්": 3558,
      "කර්මා": 3559,
      "මංගල": 3560,
      "හැදිලා": 3561,
      "වර්ධන": 3562,
      "නායකයෝ": 3563,
      "සිල්වා": 3564,
      "බයිලා": 3565,
      "දැක්කහම": 3566,
      "ක්‍රමයක්": 3567,
      "ඇදගෙන": 3568,
      "නවත්තන්න": 3569,
      "දැකපු": 3570,
      "ක්‍රියාත්මක": 3571,
      "අනෙකුත්": 3572,
      "උදාහ": 3573,
      "පිළිබඳව": 3574,
      "ජන්දය": 3575,
      "මෛත්රී": 3576,
      "දෙපාර්ත": 3577,
      "කසිප්පු": 3578,
      "5ක්": 3579,
      "80": 3580,
      "අබ": 3581,
      "අස්සේ": 3582,
      "ආසියාවේ": 3583,
      "උග": 3584,
      "එකාට": 3585,
      "ඔනේ": 3586,
      "කලි": 3587,
      "ණක්": 3588,
      "බීම": 3589,
      "මධ්ය": 3590,
      "යිය": 3591,
      "සවි": 3592,
      "කරත්": 3593,
      "කරද්දී": 3594,
      "ලාභ": 3595,
      "ස්සි": 3596,
      "විවෘ": 3597,
      "තුලින්": 3598,
      "පිරු": 3599,
      "මිහි": 3600,
      "සිත්": 3601,
      "සිරා": 3602,
      "පුතේ": 3603,
      "මාෆ": 3604,
      "මාත්": 3605,
      "ලිත්": 3606,
      "දිවි": 3607,
      "මුන්ගේ": 3608,
      "රටෙ": 3609,
      "නොමි": 3610,
      "දේස": 3611,
      "දේපල": 3612,
      "වැඩකරන": 3613,
      "කරන්නෙත්": 3614,
      "පොත": 3615,
      "වේදී": 3616,
      "මැත": 3617,
      "මැර": 3618,
      "ජනගහ": 3619,
      "පාලම": 3620,
      "කරනකොට": 3621,
      "හිතල": 3622,
      "ප්‍රදේශ": 3623,
      "කෙලින්": 3624,
      "අරමුණ": 3625,
      "වරක්": 3626,
      "බිම්": 3627,
      "දන්නවද": 3628,
      "ඒකෙන්": 3629,
      "බෙදා": 3630,
      "හදන්නෙ": 3631,
      "තුමාගේ": 3632,
      "සෙල්": 3633,
      "වර්තමා": 3634,
      "කීම්": 3635,
      "දිනන්න": 3636,
      "ගෑනිය": 3637,
      "ඇතුලේ": 3638,
      "පළමු": 3639,
      "වහන්සේගේ": 3640,
      "වුණොත්": 3641,
      "දියුණුව": 3642,
      "කට්ටියක්": 3643,
      "බන්දු": 3644,
      "තිබ්බේ": 3645,
      "දේශපාලනයට": 3646,
      "ප්පූ": 3647,
      "නායකත්වය": 3648,
      "පුද්ගලය": 3649,
      "ගරුක": 3650,
      "හදාගෙන": 3651,
      "පාර්ලිමේන්තුවට": 3652,
      "නිර්මාණය": 3653,
      "පිටිගල": 3654,
      "විධායක": 3655,
      "පොළො": 3656,
      "ගෞර": 3657,
      "ඉතිහාසය": 3658,
      "දීර්ඝායු": 3659,
      "ආශ්චර්ය": 3660,
      "ඩෙංගු": 3661,
      "ප්රතිපත්ති": 3662,
      "දුර්වල": 3663,
      "70": 3664,
      "අලියා": 3665,
      "ආච්චි": 3666,
      "ඇල": 3667,
      "කදී": 3668,
      "කසාද": 3669,
      "කකුල්": 3670,
      "චතු": 3671,
      "ණෙනි": 3672,
      "බල්": 3673,
      "බඳි": 3674,
      "මව": 3675,
      "මගෙ": 3676,
      "මට්ටම": 3677,
      "යවන": 3678,
      "සෙන්": 3679,
      "හං": 3680,
      "වාදිය": 3681,
      "කරනවද": 3682,
      "ස්සා": 3683,
      "නිවුස්": 3684,
      "විපා": 3685,
      "තුනක්": 3686,
      "වෙන්ඩ": 3687,
      "කොරිය": 3688,
      "රුම්": 3689,
      "මාර්ථ": 3690,
      "කාලික": 3691,
      "දෙරණ": 3692,
      "මුණු": 3693,
      "මෙලෝ": 3694,
      "ප්රිය": 3695,
      "ටිකට්": 3696,
      "හෙල": 3697,
      "බලපත්": 3698,
      "පොරක්": 3699,
      "වේදි": 3700,
      "වේගී": 3701,
      "අයගෙන්": 3702,
      "රණවිරුව": 3703,
      "සියාව": 3704,
      "ගිවිසු": 3705,
      "අවස්": 3706,
      "ප්රදේශ": 3707,
      "ලැජ්ජා": 3708,
      "යුතුමයි": 3709,
      "නීය": 3710,
      "කෝල්": 3711,
      "කැඳ": 3712,
      "හොදටම": 3713,
      "ටිකත්": 3714,
      "ජීවන": 3715,
      "ණ්ඩි": 3716,
      "වයසක": 3717,
      "තැනට": 3718,
      "පිරිතා": 3719,
      "තිබෙන්නේ": 3720,
      "මුදලා": 3721,
      "ෙකුත්": 3722,
      "ඉතාලි": 3723,
      "සමාන": 3724,
      "සුවය": 3725,
      "විදින්න": 3726,
      "අනුකම්": 3727,
      "උඹට": 3728,
      "උඹලට": 3729,
      "පරපු": 3730,
      "ආරම්භ": 3731,
      "ලැබීම": 3732,
      "ආණ්ඩුවක්": 3733,
      "ඉල්ලන්න": 3734,
      "අල්ලලා": 3735,
      "හමුව": 3736,
      "භාවනා": 3737,
      "නංගි": 3738,
      "එකෙක්ට": 3739,
      "කාන්තාවන්": 3740,
      "කිවුව": 3741,
      "කරාවි": 3742,
      "හදාගන්න": 3743,
      "දෙයියෝ": 3744,
      "උදව්වක්": 3745,
      "විදුලිය": 3746,
      "ලන්කාව": 3747,
      "අප්පා": 3748,
      "ඇමරිකාවේ": 3749,
      "වංච": 3750,
      "අංශයේ": 3751,
      "හොයල": 3752,
      "විරෝධී": 3753,
      "අධ්‍යාපනය": 3754,
      "ගෙනියන්න": 3755,
      "ඉතිහාසයේ": 3756,
      "අමතර": 3757,
      "තත්වයට": 3758,
      "තමුන්ගේ": 3759,
      "ජාත්‍ය": 3760,
      "හෝටල්": 3761,
      "බලපෑම්": 3762,
      "ෙනුත්": 3763,
      "කාලකණ්ණි": 3764,
      "තම්බි": 3765,
      "ලොකුවට": 3766,
      "ආස": 3767,
      "ඇගේ": 3768,
      "ඌට": 3769,
      "ඒකෙ": 3770,
      "ඔතන": 3771,
      "කමින්": 3772,
      "තූ": 3773,
      "දට": 3774,
      "පතා": 3775,
      "යමු": 3776,
      "වදි": 3777,
      "වරා": 3778,
      "සත": 3779,
      "ලාම්": 3780,
      "හින": 3781,
      "හැඟ": 3782,
      "පිනට": 3783,
      "වෙත්": 3784,
      "කොස්": 3785,
      "මාද": 3786,
      "මාලු": 3787,
      "නාලි": 3788,
      "දිනය": 3789,
      "සුරු": 3790,
      "වුපිය": 3791,
      "මෙයට": 3792,
      "නොවැ": 3793,
      "වත්කම්": 3794,
      "මොකා": 3795,
      "වේල": 3796,
      "රියදු": 3797,
      "තාවයක්": 3798,
      "මැරෙනවා": 3799,
      "මැරිලා": 3800,
      "කොටස්": 3801,
      "හිතන්නෙ": 3802,
      "ප්‍රධාන": 3803,
      "කෙලි": 3804,
      "මතය": 3805,
      "පියව්": 3806,
      "දහම්": 3807,
      "වන්නට": 3808,
      "තමාගේ": 3809,
      "සක්කිලි": 3810,
      "වර්ජනය": 3811,
      "කයින්ට": 3812,
      "කිරීමෙන්": 3813,
      "කෑවා": 3814,
      "මහින්දගේ": 3815,
      "පෙනු": 3816,
      "පෙනේ": 3817,
      "පරපුර": 3818,
      "උනානම්": 3819,
      "ඇතුළ": 3820,
      "ඇතුලු": 3821,
      "ලැබී": 3822,
      "පැත්තෙන්": 3823,
      "සිදුවන්නේ": 3824,
      "අයිතියක්": 3825,
      "අපරාද": 3826,
      "සමාජයට": 3827,
      "කාලෙට": 3828,
      "ඉස්පිරිතා": 3829,
      "රනිල්ට": 3830,
      "ගොල්ලො": 3831,
      "තෝරා": 3832,
      "මැතිවරණය": 3833,
      "රැකගන්න": 3834,
      "පුරුද්ද": 3835,
      "කරයිද": 3836,
      "ඇමෙරිකන්": 3837,
      "2500": 3838,
      "ටෝක්": 3839,
      "පදිංචි": 3840,
      "පාදනය": 3841,
      "සංවර්ධන": 3842,
      "බයියො": 3843,
      "කිව්වොත්": 3844,
      "නොදකින්": 3845,
      "සංවිධානය": 3846,
      "පරිස්සම්": 3847,
      "වැටිලා": 3848,
      "සිංගප්පූ": 3849,
      "මහන්සි": 3850,
      "මාෆිය": 3851,
      "ජාත්‍යන්තර": 3852,
      "17": 3853,
      "225": 3854,
      "89": 3855,
      "අයු": 3856,
      "අළු": 3857,
      "එලි": 3858,
      "එපැ": 3859,
      "එජා": 3860,
      "එළි": 3861,
      "එවිට": 3862,
      "කති": 3863,
      "කප්ප": 3864,
      "ගක්": 3865,
      "ටන්": 3866,
      "දඟ": 3867,
      "දල": 3868,
      "නල්": 3869,
      "පඩිය": 3870,
      "යං": 3871,
      "සතිය": 3872,
      "ික": 3873,
      "ුම්": 3874,
      "ෙන්නෙ": 3875,
      "ොයි": 3876,
      "කියෙ": 3877,
      "කියවන": 3878,
      "පාවා": 3879,
      "දිසා": 3880,
      "රටවලට": 3881,
      "වුම්": 3882,
      "දැනෙ": 3883,
      "තාක්ෂ": 3884,
      "‍රේ": 3885,
      "බලල": 3886,
      "බලයෙන්": 3887,
      "කරන්නත්": 3888,
      "වේලා": 3889,
      "ඉන්නකොට": 3890,
      "බුක්": 3891,
      "නේ": 3892,
      "මහේ": 3893,
      "මැරි": 3894,
      "ප්රහාරය": 3895,
      "හිතුවේ": 3896,
      "රයෙන්": 3897,
      "ප්‍රකාශ": 3898,
      "ප්‍රවෘත්": 3899,
      "දේශනා": 3900,
      "කළත්": 3901,
      "ලියි": 3902,
      "ලියක්": 3903,
      "රෙන්නේ": 3904,
      "විතරද": 3905,
      "ඇත්තම": 3906,
      "වටා": 3907,
      "සමගිය": 3908,
      "වසන්": 3909,
      "තිබුණු": 3910,
      "කියන්නද": 3911,
      "පන්ති": 3912,
      "රජු": 3913,
      "රජයක්": 3914,
      "ගමනක්": 3915,
      "අහන්නේ": 3916,
      "ඉතාලියේ": 3917,
      "බලන්නකෝ": 3918,
      "කිරීමයි": 3919,
      "දරුවෙක්": 3920,
      "එයාලට": 3921,
      "පේනව": 3922,
      "දැනෙන": 3923,
      "සිටිනවා": 3924,
      "ශාලා": 3925,
      "ගෑස්": 3926,
      "සන්ධා": 3927,
      "දියුනු": 3928,
      "සේවකයන්": 3929,
      "පුදුමයි": 3930,
      "අහිංස": 3931,
      "මීටර්": 3932,
      "දකින්නේ": 3933,
      "ලස්සනට": 3934,
      "ඉන්දියන්": 3935,
      "ත්‍රස්ත": 3936,
      "සජිත්ට": 3937,
      "දූෂණ": 3938,
      "එ්ත්": 3939,
      "හමුදාවට": 3940,
      "ස්තුති": 3941,
      "මහත්තුරු": 3942,
      "ශක්තිමත්": 3943,
      "ගනිල්ලා": 3944,
      "කපටි": 3945,
      "සැලසුම්": 3946,
      "ආඩම්බර": 3947,
      "ගැලපෙන": 3948,
      "ඉංජිනේ": 3949,
      "ඇඳුම්": 3950,
      "වෑන්": 3951,
      "සැමදා": 3952,
      "ඇඳගෙන": 3953,
      "කොම්පැ": 3954,
      "මැදිහත්": 3955,
      "විවේච": 3956,
      "2ක්": 3957,
      "අඬ": 3958,
      "අතු": 3959,
      "ආදා": 3960,
      "ආදිය": 3961,
      "ඇල්ල": 3962,
      "ඇරෙන්න": 3963,
      "කද": 3964,
      "ගතව": 3965,
      "තෙන්": 3966,
      "භයාන": 3967,
      "මක": 3968,
      "මගී": 3969,
      "හමා": 3970,
      "ෙකි": 3971,
      "න්දේ": 3972,
      "ලාබ": 3973,
      "නිදන්": 3974,
      "හිස": 3975,
      "හිටු": 3976,
      "පිරිය": 3977,
      "වැය": 3978,
      "වැලි": 3979,
      "පාසැ": 3980,
      "මාතර": 3981,
      "දෙවන": 3982,
      "දෙදෙනා": 3983,
      "මෙට": 3984,
      "දැං": 3985,
      "සාමය": 3986,
      "නොගෙන": 3987,
      "තරමින්": 3988,
      "දේට": 3989,
      "ල්ලෙන්": 3990,
      "ගෙවා": 3991,
      "ගෙයක්": 3992,
      "මොකුත්": 3993,
      "බලේ": 3994,
      "බැරුව": 3995,
      "බැලුවා": 3996,
      "නෑනෙ": 3997,
      "යුධ": 3998,
      "වේගය": 3999,
      "අපේම": 4000,
      "රියදුරු": 4001,
      "නවනම්": 4002,
      "කයෙකු": 4003,
      "ටියු": 4004,
      "හිතන්": 4005,
      "රැව": 4006,
      "තියෙද්දී": 4007,
      "ඩුවක්": 4008,
      "බිමට": 4009,
      "කැලේ": 4010,
      "ක්කේ": 4011,
      "ණ්ඩා": 4012,
      "එහෙමයි": 4013,
      "බෙහෙ": 4014,
      "න්තො": 4015,
      "තීන්දුව": 4016,
      "ගමනය": 4017,
      "තොපිට": 4018,
      "දරුවො": 4019,
      "එයාලගේ": 4020,
      "වාහනයක්": 4021,
      "උදවු": 4022,
      "තිබ්බෙ": 4023,
      "නිලදා": 4024,
      "ශිර්": 4025,
      "මනුස්සය": 4026,
      "සමගයි": 4027,
      "වටිනාකම": 4028,
      "වෛද්යවරු": 4029,
      "කපන්න": 4030,
      "පවාහි": 4031,
      "ස්වාධී": 4032,
      "ඉහත": 4033,
      "කුලප්පු": 4034,
      "ඝාතනය": 4035,
      "පනින": 4036,
      "හොයලා": 4037,
      "ටෙලි": 4038,
      "පළාතේ": 4039,
      "ෂාන්": 4040,
      "මගුලක්": 4041,
      "කරදරයක්": 4042,
      "ඉපදු": 4043,
      "කොන්ත්": 4044,
      "ප්රජාතන්ත්රවාදය": 4045,
      "විශිෂ්ට": 4046,
      "දැමීම": 4047,
      "නිරෝධායන": 4048,
      "බුද්ධාගම": 4049,
      "කිහිප": 4050,
      "අර්බු": 4051,
      "ඡායා": 4052,
      "රෝහලේ": 4053,
      "ගෞරවය": 4054,
      "එපැයි": 4055,
      "21": 4056,
      "අඳි": 4057,
      "අවාසනාව": 4058,
      "ආචාර්ය": 4059,
      "ආශිර්": 4060,
      "ඇහුව": 4061,
      "ඉපදි": 4062,
      "එම්": 4063,
      "එලව": 4064,
      "ඔයි": 4065,
      "කගේ": 4066,
      "දම්": 4067,
      "දයා": 4068,
      "පච": 4069,
      "පවස": 4070,
      "රත්ත": 4071,
      "වරයෙක්": 4072,
      "සමු": 4073,
      "සසර": 4074,
      "හඬ": 4075,
      "න්නත්": 4076,
      "කරගත්": 4077,
      "ලාල්": 4078,
      "නිළ": 4079,
      "නිදි": 4080,
      "හැබෑ": 4081,
      "පාක්ෂි": 4082,
      "රුදු": 4083,
      "එකනේ": 4084,
      "දෙශ": 4085,
      "නාස්ති": 4086,
      "වුණු": 4087,
      "කුජී": 4088,
      "සාදා": 4089,
      "නොමැත": 4090,
      "තාන්": 4091,
      "තරග": 4092,
      "ගැළ": 4093,
      "රාල්": 4094,
      "බැල": 4095,
      "නුයි": 4096,
      "යුතුව": 4097,
      "ගැනීම්": 4098,
      "කෙටි": 4099,
      "කෙසෙල්": 4100,
      "ගාමි": 4101,
      "වලටත්": 4102,
      "ච්චා": 4103,
      "බවක්": 4104,
      "ම්බර්": 4105,
      "සංවර්": 4106,
      "ගත්තෙ": 4107,
      "ගත්තත්": 4108,
      "දහමට": 4109,
      "වහන්න": 4110,
      "පක්ෂයේ": 4111,
      "කිසිවෙ": 4112,
      "තීර": 4113,
      "හිටියත්": 4114,
      "අඩුපාඩු": 4115,
      "භාෂ": 4116,
      "නීතියේ": 4117,
      "විදිනවා": 4118,
      "සතුන්ට": 4119,
      "කාරයන්ට": 4120,
      "වාසී": 4121,
      "වීමෙන්": 4122,
      "ලබාදෙන්න": 4123,
      "හොරෙක්": 4124,
      "ඔක්කොටම": 4125,
      "ශාන්ත": 4126,
      "ඇතුල": 4127,
      "ඇතුල්": 4128,
      "යන්තර": 4129,
      "හාමුදුරුවන්ට": 4130,
      "දියුණ": 4131,
      "ඉල්ලීම්": 4132,
      "ඉස්සෙ": 4133,
      "ආයතනය": 4134,
      "දීමක්": 4135,
      "දීමෙන්": 4136,
      "ඉස්සරහ": 4137,
      "වුණාම": 4138,
      "වගේ": 4139,
      "විරුද්ද": 4140,
      "පුදුමයක්": 4141,
      "හැකියාවක්": 4142,
      "උත්සහ": 4143,
      "ගනිමු": 4144,
      "ක්රමයක්": 4145,
      "සෙනෙ": 4146,
      "මරාගෙන": 4147,
      "ලාංකිකයන්": 4148,
      "මගුල්": 4149,
      "ගනීවි": 4150,
      "දෙමාපියන්": 4151,
      "අනිවාර්යයෙන්ම": 4152,
      "ක්‍රියාවක්": 4153,
      "හදවතින්": 4154,
      "අනවශ්‍ය": 4155,
      "විස්වාස": 4156,
      "කුමක්ද": 4157,
      "කදුළු": 4158,
      "කඳුළු": 4159,
      "හැංගිලා": 4160,
      "උදාහරණ": 4161,
      "දෙපාර්තමේන්තුව": 4162,
      "90": 4163,
      "ඊලග": 4164,
      "උතුර": 4165,
      "ඕකු": 4166,
      "ගූ": 4167,
      "ගලා": 4168,
      "ගමු": 4169,
      "ඩල": 4170,
      "ථම": 4171,
      "දළ": 4172,
      "දවා": 4173,
      "නහ": 4174,
      "නලා": 4175,
      "පළි": 4176,
      "රවී": 4177,
      "වගා": 4178,
      "වතුන්": 4179,
      "ක්ශ": 4180,
      "ම්පි": 4181,
      "තිත්ත": 4182,
      "නිති": 4183,
      "විකල්ප": 4184,
      "මේදී": 4185,
      "හිත්": 4186,
      "හිලා": 4187,
      "පිනක්": 4188,
      "වෙහෙ": 4189,
      "වෙලේ": 4190,
      "වෙලක්": 4191,
      "වැන්න": 4192,
      "පාරෙ": 4193,
      "තියන්නේ": 4194,
      "එකටම": 4195,
      "කිවුවා": 4196,
      "දිනයක්": 4197,
      "මුගේ": 4198,
      "රටින්": 4199,
      "වුන්ට": 4200,
      "මෙක": 4201,
      "කුලියට": 4202,
      "සාක්ෂ": 4203,
      "සාක්ෂි": 4204,
      "අපත": 4205,
      "වලංගු": 4206,
      "ගැති": 4207,
      "හානි": 4208,
      "බලතල": 4209,
      "මහජනතාව": 4210,
      "රියේ": 4211,
      "ක්ෂේ": 4212,
      "මැටි": 4213,
      "සහනයක්": 4214,
      "ප්‍රජාතන්": 4215,
      "රටේම": 4216,
      "බාධ": 4217,
      "බාහිර": 4218,
      "ගාල්ලේ": 4219,
      "ලියලා": 4220,
      "ගහගෙන": 4221,
      "හැමතැනම": 4222,
      "දහමේ": 4223,
      "වඩාත්": 4224,
      "ණින්": 4225,
      "හිටියට": 4226,
      "කීප": 4227,
      "තොපේ": 4228,
      "පමනක්": 4229,
      "සමාගම්": 4230,
      "අම්මට": 4231,
      "අම්මෝ": 4232,
      "වීමයි": 4233,
      "ෂ්ට": 4234,
      "මියගිය": 4235,
      "දොඩ": 4236,
      "සොයු": 4237,
      "හාමුදුරු": 4238,
      "වාදයක්": 4239,
      "ආදරෙයි": 4240,
      "අතරේ": 4241,
      "මෝඩයෝ": 4242,
      "මරලා": 4243,
      "උපවාස": 4244,
      "වුනාම": 4245,
      "යහපාල": 4246,
      "සේවයට": 4247,
      "නැත්තන්": 4248,
      "කනගා": 4249,
      "කාන්තා": 4250,
      "දෙමවුපිය": 4251,
      "හම්බන්තො": 4252,
      "කොල්ලෙක්": 4253,
      "සාමාජි": 4254,
      "ලයික්": 4255,
      "හිමිකම්": 4256,
      "ඉගෙනගෙන": 4257,
      "පෙන්වා": 4258,
      "කෙනාට": 4259,
      "රවට්ට": 4260,
      "හමුදාවේ": 4261,
      "දරුණු": 4262,
      "සුදුසුකම්": 4263,
      "බැලුවම": 4264,
      "බඩගි": 4265,
      "ජේසු": 4266,
      "වැරැද්දක්": 4267,
      "පොහොට්ටුව": 4268,
      "පැනලා": 4269,
      "රැස්වීම්": 4270,
      "නගරයේ": 4271,
      "විකුණන": 4272,
      "කරුණාව": 4273,
      "තර්ක": 4274,
      "ප්‍රාර්ථනා": 4275,
      "ක්‍රියාව": 4276,
      "ආවරණය": 4277,
      "ගෙඩියක්": 4278,
      "අරාබි": 4279,
      "නූගත්": 4280,
      "සාකච්": 4281,
      "මචං": 4282,
      "විවෘත": 4283,
      "ප්‍රජාතන්ත්‍ර": 4284,
      "අල්": 4285,
      "අත්ත": 4286,
      "අහිමි": 4287,
      "අංක": 4288,
      "අප්රේ": 4289,
      "ඇග": 4290,
      "ඇදු": 4291,
      "ඇද්ද": 4292,
      "එවන්න": 4293,
      "එතුමාට": 4294,
      "කහ": 4295,
      "කන්නෙ": 4296,
      "කඩු": 4297,
      "කකුල": 4298,
      "ණී": 4299,
      "පලි": 4300,
      "පණි": 4301,
      "බඹ": 4302,
      "යන්ගේ": 4303,
      "යකින්": 4304,
      "යටින්": 4305,
      "වුවත්": 4306,
      "ශය": 4307,
      "සසුන": 4308,
      "ළග": 4309,
      "ිලි": 4310,
      "ක්රියාව": 4311,
      "නිම": 4312,
      "කියක්": 4313,
      "කියමු": 4314,
      "වෙබ්": 4315,
      "සිසුන්": 4316,
      "පුද": 4317,
      "කාමර": 4318,
      "එකි": 4319,
      "දිව": 4320,
      "දිනව": 4321,
      "සුද්දා": 4322,
      "වුර්": 4323,
      "කුයි": 4324,
      "කුමන්": 4325,
      "කුළු": 4326,
      "අපේ": 4327,
      "තරහ": 4328,
      "කටවත්": 4329,
      "ල්ලෙ": 4330,
      "ගැහුවා": 4331,
      "හෙන්න": 4332,
      "මොකෝ": 4333,
      "ව්යව": 4334,
      "මහජනතාවට": 4335,
      "පැන්න": 4336,
      "ගැනයි": 4337,
      "රියට": 4338,
      "තාවට": 4339,
      "අවරුදු": 4340,
      "හුඟ": 4341,
      "මිනිස්සුන්ගෙ": 4342,
      "පෙම්": 4343,
      "රයන්": 4344,
      "සැර": 4345,
      "බොදු": 4346,
      "බිං": 4347,
      "බිලි": 4348,
      "ගහක්": 4349,
      "වීල්": 4350,
      "කැසි": 4351,
      "සංඝ": 4352,
      "බැරිනම්": 4353,
      "රාජ්": 4354,
      "රාජකාරිය": 4355,
      "ගෝඨ": 4356,
      "ෙකුගේ": 4357,
      "කීපයක්": 4358,
      "පහන්": 4359,
      "බයයි": 4360,
      "කාරයා": 4361,
      "ර්ථය": 4362,
      "මියෙක්": 4363,
      "වන්දි": 4364,
      "අදහසක්": 4365,
      "දුන්නත්": 4366,
      "ගෑණි": 4367,
      "ඇතුලෙ": 4368,
      "සරන": 4369,
      "ලැබූ": 4370,
      "ලැබිය": 4371,
      "මුන්ගෙ": 4372,
      "එක්කම": 4373,
      "එක්සත්": 4374,
      "ඉල්ලන": 4375,
      "පසුපස": 4376,
      "..........": 4377,
      "කරගන්නවා": 4378,
      "ජීවිතයක්": 4379,
      "චීන්නු": 4380,
      "බන්ධනා": 4381,
      "මූලික": 4382,
      "දකිනකොට": 4383,
      "දෙවියෝ": 4384,
      "චන්දෙට": 4385,
      "පුද්ගලයින්": 4386,
      "නැවතත්": 4387,
      "අධිවේගී": 4388,
      "????": 4389,
      "කේස්": 4390,
      "ගොල්ලන්ට": 4391,
      "වර්ධනය": 4392,
      "බීලා": 4393,
      "විශ්වාසය": 4394,
      "අවශ්‍යයි": 4395,
      "ලැබෙන්න": 4396,
      "අමාරුවේ": 4397,
      "ඉස්කෝල": 4398,
      "කරුවෙක්": 4399,
      "හීන": 4400,
      "මිනීමැ": 4401,
      "ආත්මාර්ථ": 4402,
      "සභාපති": 4403,
      "ද්රව්ය": 4404,
      "අහුවු": 4405,
      "විද්යාව": 4406,
      "රත්තරන්": 4407,
      "හම්බන්තොට": 4408,
      "අප්රේල්": 4409,
      "24": 4410,
      "71": 4411,
      "අහින්": 4412,
      "ආවෙ": 4413,
      "ඇල්": 4414,
      "ඉන්ට": 4415,
      "උණ": 4416,
      "කතර": 4417,
      "චැ": 4418,
      "ජෙන": 4419,
      "ජන්දෙ": 4420,
      "තක්ක": 4421,
      "තමුන්ට": 4422,
      "දවල්": 4423,
      "නල": 4424,
      "නමට": 4425,
      "නුවන්": 4426,
      "බාව": 4427,
      "බවල": 4428,
      "මනි": 4429,
      "ලවා": 4430,
      "සය": 4431,
      "හඩ": 4432,
      "හෘ": 4433,
      "ළුවක්": 4434,
      "ියෙක්": 4435,
      "ත්යා": 4436,
      "ක්‍රි": 4437,
      "කරැ": 4438,
      "කරනය": 4439,
      "කරනවට": 4440,
      "තිස්සේ": 4441,
      "විමු": 4442,
      "කියව": 4443,
      "කියපන්": 4444,
      "කියවලා": 4445,
      "නැවැ": 4446,
      "නැගෙන": 4447,
      "වෙද්දී": 4448,
      "මිලා": 4449,
      "සිව්": 4450,
      "දුප්ප": 4451,
      "දුෂණ": 4452,
      "කොපමණ": 4453,
      "මාලා": 4454,
      "මාළු": 4455,
      "මාද්ය": 4456,
      "මාතෘ": 4457,
      "කාම": 4458,
      "එකග": 4459,
      "දිනා": 4460,
      "දිනේ": 4461,
      "හොල්": 4462,
      "සුඛ": 4463,
      "සුනා": 4464,
      "ර්ට්": 4465,
      "යාවි": 4466,
      "ප්ත": 4467,
      "නොකා": 4468,
      "නොදැන": 4469,
      "තානා": 4470,
      "තරමේ": 4471,
      "ගැස": 4472,
      "බලයක්": 4473,
      "යුග": 4474,
      "යුද්ද": 4475,
      "යුද්දේ": 4476,
      "මහරි": 4477,
      "රියදුර": 4478,
      "ඔබයි": 4479,
      "මටනම්": 4480,
      "මැණි": 4481,
      "සියම්": 4482,
      "සියෙන්": 4483,
      "පාලකයෝ": 4484,
      "දියෙ": 4485,
      "දියේ": 4486,
      "ලංකාවෙන්": 4487,
      "අවට": 4488,
      "ප්රහාර": 4489,
      "බායි": 4490,
      "ගාල": 4491,
      "ඩිස්": 4492,
      "ඩුවට": 4493,
      "රේග": 4494,
      "මුදල": 4495,
      "වැඩිහිටිය": 4496,
      "හිටං": 4497,
      "හිටපන්": 4498,
      "කීර්": 4499,
      "පලයන්": 4500,
      "කොරෝන": 4501,
      "චන්දි": 4502,
      "පෙරමුණ": 4503,
      "දෙකෙන්": 4504,
      "දෙකකට": 4505,
      "වාදයට": 4506,
      "බැහැලා": 4507,
      "චන්දයක්": 4508,
      "සිදුවීම්": 4509,
      "අල්ලන": 4510,
      "පෝලි": 4511,
      "රාජපක්ෂලාට": 4512,
      "චීනය": 4513,
      "දවසක": 4514,
      "ංශය": 4515,
      "සටහන්": 4516,
      "ශිල්": 4517,
      "කොල්ලො": 4518,
      "නයේදී": 4519,
      "විරුවා": 4520,
      "අවස්ථාවේ": 4521,
      "ත්වයට": 4522,
      "පුතානෝ": 4523,
      "බොහොමයක්": 4524,
      "බීල": 4525,
      "මදිවට": 4526,
      "විදුහල්": 4527,
      "විදේශි": 4528,
      "සමහරුන්ට": 4529,
      "ස්ටර්": 4530,
      "දැනුමක්": 4531,
      "පුලුවන්නම්": 4532,
      "සුද්දෝ": 4533,
      "තේරෙයි": 4534,
      "ඔලුවට": 4535,
      "කොයිතරම්": 4536,
      "තනිකර": 4537,
      "පිළිබද": 4538,
      "අනෙක": 4539,
      "ටීවී": 4540,
      "කොන්දො": 4541,
      "ආයුධ": 4542,
      "සිහින": 4543,
      "ශ්‍රේ": 4544,
      "ඩීල්": 4545,
      "ජීවනය": 4546,
      "වෙලාවක": 4547,
      "නිරෝධායනය": 4548,
      "සාරංග": 4549,
      "උතුරේ": 4550,
      "දෙයියනේ": 4551,
      "කණගාටුයි": 4552,
      "මහත්මයා": 4553,
      "ආරක්ශක": 4554,
      "පන්සලේ": 4555,
      "අකමැති": 4556,
      "විසදුමක්": 4557,
      "උද්ඝෝෂණ": 4558,
      "වෛරසය": 4559,
      "මත්තල": 4560,
      "අතීතයේ": 4561,
      "ඕස්ට්‍රේ": 4562,
      "වේදිකාව": 4563,
      "ගිවිසුම": 4564,
      "අවස්තාව": 4565,
      "ඔයිට": 4566,
      "අසී": 4567,
      "ආරා": 4568,
      "ආවට": 4569,
      "උගන්න": 4570,
      "උබට": 4571,
      "එනව": 4572,
      "එලිය": 4573,
      "ඔස්සේ": 4574,
      "කන්ද": 4575,
      "කවර": 4576,
      "ගමක්": 4577,
      "ගරහ": 4578,
      "චො": 4579,
      "ඡන්දේ": 4580,
      "ජපා": 4581,
      "ඩයි": 4582,
      "තනියම": 4583,
      "පම්": 4584,
      "බණ්ඩා": 4585,
      "යකා": 4586,
      "යන්ඩ": 4587,
      "වතා": 4588,
      "ෂුවර්": 4589,
      "සජ": 4590,
      "සහා": 4591,
      "සනී": 4592,
      "්‍ර": 4593,
      "ුන්": 4594,
      "ූර": 4595,
      "කරොත්": 4596,
      "ස්ම": 4597,
      "නිකා": 4598,
      "වින": 4599,
      "විර": 4600,
      "කියන්ඩ": 4601,
      "තුරක්": 4602,
      "නැනේ": 4603,
      "පින්ත": 4604,
      "සිවිල්": 4605,
      "පාන": 4606,
      "කොටින්": 4607,
      "තියන්": 4608,
      "දෙපැත්ත": 4609,
      "දිම": 4610,
      "රට්": 4611,
      "මො": 4612,
      "මෙතරම්": 4613,
      "ප්ලේ": 4614,
      "කුසල්": 4615,
      "කුඹු": 4616,
      "නොපෙනෙන": 4617,
      "ගෙවන": 4618,
      "...?": 4619,
      "සේනා": 4620,
      "නුකූ": 4621,
      "යුද": 4622,
      "බුරු": 4623,
      "නෙවි": 4624,
      "පැවිදි": 4625,
      "රියක්": 4626,
      "ඔබලා": 4627,
      "සියේ": 4628,
      "ඔයත්": 4629,
      "ලැබිලා": 4630,
      "ප්‍රේ": 4631,
      "සැරේ": 4632,
      "ගාස්තුව": 4633,
      "බොත්": 4634,
      "වියා": 4635,
      "අරං": 4636,
      "අදටත්": 4637,
      "ලියාවේ": 4638,
      "ලොවට": 4639,
      "වනවිට": 4640,
      "රේස්": 4641,
      "නියක්": 4642,
      "නියමිත": 4643,
      "රෙන්නෙ": 4644,
      "ඒකේ": 4645,
      "වයසට": 4646,
      "දෙයක්ද": 4647,
      "වසරේ": 4648,
      "වහන්": 4649,
      "මත්පැන්": 4650,
      "බලාපොරො": 4651,
      "යකඩ": 4652,
      "පන්තියේ": 4653,
      "ලුවක්": 4654,
      "පමන": 4655,
      "කලාම": 4656,
      "දරුවන්ගේ": 4657,
      "පේන්නෙ": 4658,
      "අනුගමනය": 4659,
      "ලෝකයට": 4660,
      "කතාවට": 4661,
      "පෙනෙනවා": 4662,
      "ජනාධිපතිතුමනි": 4663,
      "පතනවා": 4664,
      "එයයි": 4665,
      "හාමුදුරුවන්ගේ": 4666,
      "මතකද": 4667,
      "මනුෂ්‍ය": 4668,
      "සේවක": 4669,
      "තිබ්බොත්": 4670,
      "මූට": 4671,
      "මිලදී": 4672,
      "ලෙඩක්": 4673,
      "මංකොල්ල": 4674,
      "පොලිසියේ": 4675,
      "ප්රතිකාර": 4676,
      "රූපවතී": 4677,
      "විද්යා": 4678,
      "සෑහෙන": 4679,
      "පිස්සුද": 4680,
      "අවුල්": 4681,
      "මහත්මය": 4682,
      "ලැබෙයි": 4683,
      "වැසිකි": 4684,
      "දැනුම්": 4685,
      "බහුතරය": 4686,
      "ඇමරිකාවට": 4687,
      "ලාංකික": 4688,
      "මානසිකත්වය": 4689,
      "වගකීමක්": 4690,
      "පෙරේත": 4691,
      "පරාජය": 4692,
      "ගැහුව": 4693,
      "ඇමෙරිකාවේ": 4694,
      "හිතුනා": 4695,
      "මඟින්": 4696,
      "චරිතයක්": 4697,
      "විඳින": 4698,
      "මොළේ": 4699,
      "පැමිණිලි": 4700,
      "එච්චරයි": 4701,
      "ජාත්යන්තර": 4702,
      "පත්තරේ": 4703,
      "මොහොතේ": 4704,
      "ඉදිරියේදී": 4705,
      "උරුමය": 4706,
      "අවධානය": 4707,
      "අනතුරක්": 4708,
      "එංගලන්ත": 4709,
      "අත්දැකීම": 4710,
      "සහයෝගය": 4711,
      "සන්තෝ": 4712,
      "ඉංග්රී": 4713,
      "සහභාගී": 4714,
      "දිස්ත්රි": 4715,
      "මොනාද": 4716,
      "නොමිලේ": 4717,
      "විපාක": 4718,
      "දළදා": 4719,
      "කතරගම": 4720,
      "විමුක්ති": 4721,
      "තානාපති": 4722,
      "විදුහල්පති": 4723,
      "11": 4724,
      "300": 4725,
      "69": 4726,
      "88": 4727,
      "අණ": 4728,
      "අඩි": 4729,
      "අදින": 4730,
      "අජිත්": 4731,
      "අනියම්": 4732,
      "ආගමේ": 4733,
      "ඈත": 4734,
      "ඊර්": 4735,
      "උනුත්": 4736,
      "එනිසා": 4737,
      "කථ": 4738,
      "කන්ඩ": 4739,
      "ගයා": 4740,
      "චර්": 4741,
      "ටීම්": 4742,
      "තලා": 4743,
      "දස": 4744,
      "දෙන්ඩ": 4745,
      "නරි": 4746,
      "නලින්": 4747,
      "පරක්": 4748,
      "පණ්ඩි": 4749,
      "බද්ද": 4750,
      "භේ": 4751,
      "මවු": 4752,
      "යද්දී": 4753,
      "ලට්": 4754,
      "වනම්": 4755,
      "සදහන්": 4756,
      "ුල්": 4757,
      "ෙහි": 4758,
      "ක්වත්": 4759,
      "වාන්": 4760,
      "..?": 4761,
      "නිවස": 4762,
      "නිදුක්": 4763,
      "ල්ස්": 4764,
      "විපත්": 4765,
      "විනයක්": 4766,
      "මේකා": 4767,
      "වෙමි": 4768,
      "සිතන": 4769,
      "දුෂණය": 4770,
      "පුතෙක්": 4771,
      "පාසල": 4772,
      "රුප": 4773,
      "මායි": 4774,
      "දෙන්නෙත්": 4775,
      "දිරිය": 4776,
      "සුන්ද": 4777,
      "සුලු": 4778,
      "සුපර්": 4779,
      "මෙි": 4780,
      "මෙහේ": 4781,
      "ත්තා": 4782,
      "කුරා": 4783,
      "වෙනකන්": 4784,
      "ගන්නත්": 4785,
      "ගෙත්": 4786,
      "බලධාරීන්": 4787,
      "පොලු": 4788,
      "ශ්‍රා": 4789,
      "පැළඳ": 4790,
      "මැන": 4791,
      "වෙලාවක්": 4792,
      "ලේඛ": 4793,
      "ගිලි": 4794,
      "ගිහිං": 4795,
      "අවන්": 4796,
      "හුගක්": 4797,
      "ප්රමාණය": 4798,
      "දේශප්රේ": 4799,
      "ගාස්තු": 4800,
      "වියයුතුයි": 4801,
      "තියෙයි": 4802,
      "වරෙන්": 4803,
      "බිඳ": 4804,
      "දෙනවද": 4805,
      "කෝච්ච": 4806,
      "දෙන්නට": 4807,
      "හැමදේ": 4808,
      "කලට": 4809,
      "මන්පිල": 4810,
      "තවදුරටත්": 4811,
      "සංදර්ශ": 4812,
      "සමදරා": 4813,
      "කාලයට": 4814,
      "කෙනෙක්ට": 4815,
      "එකක්වත්": 4816,
      "ලක්ශ": 4817,
      "ලොකුයි": 4818,
      "පාරත්": 4819,
      "කලානම්": 4820,
      "සමාගම": 4821,
      "කෑලි": 4822,
      "ට්ටුව": 4823,
      "හරියන්නේ": 4824,
      "අනුන්ට": 4825,
      "ග්රා": 4826,
      "ඒවායේ": 4827,
      "දුන්නට": 4828,
      "වෛරස්": 4829,
      "මරන": 4830,
      "සිදුවීම": 4831,
      "අල්ලස්": 4832,
      "රාජපක්ෂලාගේ": 4833,
      "චීවර": 4834,
      "එමෙන්ම": 4835,
      "කවුරුහරි": 4836,
      "සටන්": 4837,
      "කිරිම": 4838,
      "අම්මපා": 4839,
      "කොහෙවත්": 4840,
      "විනාශය": 4841,
      "විද්‍ය": 4842,
      "වටිනාකමක්": 4843,
      "නායකය": 4844,
      "රැකවරණ": 4845,
      "අනාගතයක්": 4846,
      "විශේෂයෙන්ම": 4847,
      "මාර්ගයේ": 4848,
      "ලෝකෙටම": 4849,
      "රසවත්": 4850,
      "ජාතිවාදය": 4851,
      "කොළඹට": 4852,
      "වැටුප": 4853,
      "ගෝටාභය": 4854,
      "දෑවැද්ද": 4855,
      "ව්යාපාර": 4856,
      "ව්යාපෘ": 4857,
      "කරුවන්ට": 4858,
      "භාවික": 4859,
      "වාසිකම්": 4860,
      "හදිසි": 4861,
      "කොන්දක්": 4862,
      "අල්ලාගෙන": 4863,
      "අධ්‍යාපන": 4864,
      "චරිත": 4865,
      "ෆේල්": 4866,
      "තත්වයක්": 4867,
      "පැවති": 4868,
      "ව්‍යාපාරි": 4869,
      "අරින්න": 4870,
      "විෂය": 4871,
      "කොහොමහරි": 4872,
      "සහෝදරිය": 4873,
      "පරම්පරාව": 4874,
      "යෑම": 4875,
      "ගෙනාපු": 4876,
      "දුෂ්කර": 4877,
      "පිලිබදව": 4878,
      "නාමයෝ": 4879,
      "දීර්ඝායුෂ": 4880,
      "මුදලාලි": 4881,
      "ආදායම්": 4882,
      "ස්වාධීන": 4883,
      "ංගම": 4884,
      "අනාව": 4885,
      "අඳු": 4886,
      "අංග": 4887,
      "අමන": 4888,
      "ඇමැති": 4889,
      "ඉල": 4890,
      "එයි": 4891,
      "එවා": 4892,
      "චර": 4893,
      "චම්පි": 4894,
      "ඩවුන්": 4895,
      "ඩියා": 4896,
      "දශක": 4897,
      "ධු": 4898,
      "පටු": 4899,
      "පලියට": 4900,
      "බයට": 4901,
      "බයේ": 4902,
      "භව": 4903,
      "මදු": 4904,
      "මහින්": 4905,
      "මචන්": 4906,
      "යර්": 4907,
      "යටි": 4908,
      "ලක": 4909,
      "ලයින්": 4910,
      "වඩ": 4911,
      "ශාව": 4912,
      "සභ": 4913,
      "සතෙක්": 4914,
      "ෝප": 4915,
      "න්තේ": 4916,
      "ක්ස්": 4917,
      "ුවද": 4918,
      "කරගැනීමට": 4919,
      "කරපල්ලා": 4920,
      "ස්ටා": 4921,
      "ස්ත්රී": 4922,
      "නිමි": 4923,
      "නිරො": 4924,
      "විල": 4925,
      "විරුවන්": 4926,
      "කියනවද": 4927,
      "හැක්කේ": 4928,
      "වෙමින්": 4929,
      "වෙද්දි": 4930,
      "සිවු": 4931,
      "සිටම": 4932,
      "පුටින්": 4933,
      "පාප": 4934,
      "කොඩිය": 4935,
      "මාට්ටු": 4936,
      "එකාව": 4937,
      "නාඩ": 4938,
      "දිගු": 4939,
      "දිගින්": 4940,
      "මුලික": 4941,
      "හොයන": 4942,
      "මෙදා": 4943,
      "කුගේ": 4944,
      "අපෝ": 4945,
      "නොවෙන": 4946,
      "නොකරන්න": 4947,
      "නොබලා": 4948,
      "නොකියා": 4949,
      "වැඩපිළි": 4950,
      "ගේ": 4951,
      "හෙල්": 4952,
      "බුද්දි": 4953,
      "ශ්ර": 4954,
      "රුවෙක්": 4955,
      "තාවකාලික": 4956,
      "ඔබලාට": 4957,
      "මැකෝ": 4958,
      "නවති": 4959,
      "ජනයා": 4960,
      "පාලක": 4961,
      "සහගත": 4962,
      "සහජීවනය": 4963,
      "ප්රධා": 4964,
      "ලෙන්න": 4965,
      "කෙරෙහි": 4966,
      "ගාමී": 4967,
      "වියත්": 4968,
      "ඩුවේ": 4969,
      "ලියන්": 4970,
      "කැම්": 4971,
      "නියි": 4972,
      "ඇත්තෙන්ම": 4973,
      "බේරෙන්න": 4974,
      "යන්නත්": 4975,
      "හෝද": 4976,
      "ගුණා": 4977,
      "ගුණය": 4978,
      "වයසේ": 4979,
      "එහෙමත්": 4980,
      "තිබුනට": 4981,
      "දේශපාලනේ": 4982,
      "දේශපාලකයන්": 4983,
      "රාජපක්ශ": 4984,
      "රාජකාරි": 4985,
      "කරනවානම්": 4986,
      "යෝගික": 4987,
      "පරිමාණ": 4988,
      "පාරෙන්": 4989,
      "කීවා": 4990,
      "විදියටම": 4991,
      "පහසුව": 4992,
      "පේට": 4993,
      "අම්මේ": 4994,
      "බයවෙන්න": 4995,
      "උඹේ": 4996,
      "කොරෝනාව": 4997,
      "බුදුදහම": 4998,
      "ලබාගන්න": 4999,
      "දැනෙනවා": 5000,
      "බුද්ධිය": 5001,
      "මුන්ව": 5002,
      "මනුෂ්ය": 5003,
      "මරපු": 5004,
      "උපකාර": 5005,
      "දවසකට": 5006,
      "දවසකින්": 5007,
      "භාවනාව": 5008,
      "ජීවත්වෙන්න": 5009,
      "ඉදලම": 5010,
      "දෙවියනේ": 5011,
      "නින්ම": 5012,
      "අධික": 5013,
      "ප්රශ්නය": 5014,
      "ප්රශ්නෙ": 5015,
      "බල්ලට": 5016,
      "මිනිහගේ": 5017,
      "පුරුෂ": 5018,
      "ලක්ෂණ": 5019,
      "වාසනාවන්": 5020,
      "දඬුවමක්": 5021,
      "විදේශීය": 5022,
      "දැක්කේ": 5023,
      "තරුණිය": 5024,
      "අන්තවාදී": 5025,
      "අමුතු": 5026,
      "බොරුවක්": 5027,
      "පුරාම": 5028,
      "පොහොට්ටුවේ": 5029,
      "ක්ෂිත": 5030,
      "පනින්න": 5031,
      "ප්රේම": 5032,
      "ඉස්කෝලේ": 5033,
      "නියෝග": 5034,
      "නැගිට": 5035,
      "ගැහුවත්": 5036,
      "උබලට": 5037,
      "රස්සාවක්": 5038,
      "කරුණක්": 5039,
      "නාමයෙන්": 5040,
      "ලඟට": 5041,
      "ද්‍රව්‍ය": 5042,
      "පුහුණුව": 5043,
      "තුනෙන්": 5044,
      "අධ්යාපනය": 5045,
      "පාඩුවේ": 5046,
      "තොටුපළ": 5047,
      "සරුංගල්": 5048,
      "උවමනාව": 5049,
      "තදබ": 5050,
      "තෑග්": 5051,
      "කොහෙන්ද": 5052,
      "ෆෝන්": 5053,
      "ජයග්රහණය": 5054,
      "හම්බු": 5055,
      "නවීන": 5056,
      "අනිවාර්යෙන්ම": 5057,
      "උගතුන්": 5058,
      "අළුත්": 5059,
      "දඟල": 5060,
      "සෙනෙහ": 5061,
      "එකිනෙ": 5062,
      "කොන්දොස්තර": 5063,
      "බලාපොරොත්ත": 5064,
      "පරක්කු": 5065,
      "නාමයෝජනා": 5066,
      "අබේ": 5067,
      "ආදි": 5068,
      "ආපසු": 5069,
      "ආවම": 5070,
      "ආකල්ප": 5071,
      "ඇන": 5072,
      "ඇස": 5073,
      "ඇහ": 5074,
      "ඊශ්‍රා": 5075,
      "උන්න": 5076,
      "උගු": 5077,
      "උතුරු": 5078,
      "එහේ": 5079,
      "එබැවින්": 5080,
      "ඔන": 5081,
      "ඕවට": 5082,
      "ගණි": 5083,
      "ගතියක්": 5084,
      "චු": 5085,
      "ජලය": 5086,
      "ටැ": 5087,
      "දර්ම": 5088,
      "නදී": 5089,
      "නගා": 5090,
      "පයි": 5091,
      "පකි": 5092,
      "පසින්": 5093,
      "භී": 5094,
      "රග": 5095,
      "ලබු": 5096,
      "ලජ්ජා": 5097,
      "වක": 5098,
      "සවු": 5099,
      "සන්ද": 5100,
      "වායු": 5101,
      "වාඩි": 5102,
      "තිස්ස": 5103,
      "විටම": 5104,
      "වික්රම": 5105,
      "විජේ": 5106,
      "විදෙස්": 5107,
      "රික": 5108,
      "හැදෙන්නේ": 5109,
      "පින": 5110,
      "පිළිය": 5111,
      "වෙසක්": 5112,
      "වෙලත්": 5113,
      "මිලට": 5114,
      "මාල්": 5115,
      "මාන්ඩ්": 5116,
      "කාළ": 5117,
      "ලිස්ට්": 5118,
      "එකකට": 5119,
      "කිඹු": 5120,
      "මුලින්": 5121,
      "රටෙන්": 5122,
      "හොදා": 5123,
      "යක්කු": 5124,
      "අපෙන්": 5125,
      "නොකළ": 5126,
      "න්ටි": 5127,
      "කටින්": 5128,
      "හාන්": 5129,
      "බලන්නෙ": 5130,
      "බලනකොට": 5131,
      "නුගත්": 5132,
      "පැවස": 5133,
      "අයයි": 5134,
      "හරිද": 5135,
      "පාලම්": 5136,
      "ඩුබායි": 5137,
      "දැන්ම": 5138,
      "අවදා": 5139,
      "කොටස": 5140,
      "කොටා": 5141,
      "පො": 5142,
      "කමෙන්": 5143,
      "ඔයවගේ": 5144,
      "කළමනා": 5145,
      "ගාල්ල": 5146,
      "ගාලු": 5147,
      "හැමදා": 5148,
      "කැළ": 5149,
      "සංඛ": 5150,
      "සංඛ්ය": 5151,
      "බේද": 5152,
      "වටහා": 5153,
      "පිරිමින්": 5154,
      "දුවයි": 5155,
      "වැරද්ද": 5156,
      "තීරු": 5157,
      "කියන්නත්": 5158,
      "සෙරෙ": 5159,
      "චාරයක්": 5160,
      "අහක": 5161,
      "අහන": 5162,
      "ඉතාලිය": 5163,
      "මෙහෙමයි": 5164,
      "විදිහක්": 5165,
      "ට්ටා": 5166,
      "අනුරා": 5167,
      "අවුරුද්දේ": 5168,
      "වාහනේ": 5169,
      "කාරව": 5170,
      "පවුලක්": 5171,
      "දුන්නම": 5172,
      "සොබා": 5173,
      "සත්ව": 5174,
      "සින්හල": 5175,
      "ර්යය": 5176,
      "සලකන්න": 5177,
      "සලකන": 5178,
      "අනතුර": 5179,
      "සිදුවිය": 5180,
      "කට්ටියට": 5181,
      "යහපත": 5182,
      "සේවකයෝ": 5183,
      "2020": 5184,
      "පීඩා": 5185,
      "මොනවාද": 5186,
      "නීතිඥ": 5187,
      "ගුණවත්": 5188,
      "සයිට්": 5189,
      "ඉන්දියාවෙන්": 5190,
      "ගැනීමක්": 5191,
      "කිරිමට": 5192,
      "කිවුවත්": 5193,
      "ලැබුනේ": 5194,
      "කේක්": 5195,
      "දැම්මේ": 5196,
      "හොරුන්ට": 5197,
      "ඉගෙනගන්න": 5198,
      "බල්ලො": 5199,
      "පුතාට": 5200,
      "රූපවාහි": 5201,
      "තෝර": 5202,
      "මනස": 5203,
      "දිගට": 5204,
      "එදාට": 5205,
      "ගැහැනු": 5206,
      "සාධාරණය": 5207,
      "විශේෂඥ": 5208,
      "කෘෂි": 5209,
      "පූර්": 5210,
      "මහත්වරු": 5211,
      "පිරිමින්ට": 5212,
      "කපලා": 5213,
      "අපරාධයක්": 5214,
      "සැලකි": 5215,
      "අන්තර්": 5216,
      "සෞඛ": 5217,
      "පෙළපාලි": 5218,
      "මහජනයා": 5219,
      "පැහැදිලියි": 5220,
      "ධර්මයට": 5221,
      "සිටියේ": 5222,
      "රස්තියා": 5223,
      "සැකයක්": 5224,
      "ලැජ්ජාව": 5225,
      "බනින": 5226,
      "උත්සාහය": 5227,
      "ඇමෙරිකාවට": 5228,
      "හැසිරීම": 5229,
      "අයිතිවාසිකම්": 5230,
      "අමාත්යා": 5231,
      "වළක්": 5232,
      "වෙළද": 5233,
      "කොලඹ": 5234,
      "ලොක්කා": 5235,
      "ගෝටට": 5236,
      "ආයිත්": 5237,
      "සාමකාමී": 5238,
      "අධ්යාපන": 5239,
      "රඟපෑ": 5240,
      "පැටව්": 5241,
      "අංකය": 5242,
      "දේශපාලුවන්ට": 5243,
      "තරුණය": 5244,
      "එකඟයි": 5245,
      "ඇතැම්": 5246,
      "ප්‍රමිතිය": 5247,
      "නගින්න": 5248,
      "රජාණන්": 5249,
      "මිතුරා": 5250,
      "නාට්ය": 5251,
      "එල්ලිලා": 5252,
      "උණුසුම්": 5253,
      "ආකාරයට": 5254,
      "නාලිකාව": 5255,
      "පාසැල්": 5256,
      "බන්ධනාගාර": 5257,
      "අහින්සක": 5258,
      "නැගෙනහිර": 5259,
      "ස්ටාර්": 5260,
      "65": 5261,
      "අලිය": 5262,
      "අප්ප": 5263,
      "ආමි": 5264,
      "ආසා": 5265,
      "ඉර": 5266,
      "ඉන්ධ": 5267,
      "ඊටත්": 5268,
      "උඩු": 5269,
      "එතරම්": 5270,
      "කකා": 5271,
      "කලු": 5272,
      "කතෝ": 5273,
      "ගඳ": 5274,
      "ගස": 5275,
      "ගතිය": 5276,
      "ගයෙන්": 5277,
      "චූන්": 5278,
      "තණ": 5279,
      "දයට": 5280,
      "ධෛ": 5281,
      "ධම්": 5282,
      "ධම්ම": 5283,
      "නර්": 5284,
      "පඩ": 5285,
      "පනේ": 5286,
      "පට්": 5287,
      "පටිය": 5288,
      "පද්ධ": 5289,
      "පලක්": 5290,
      "පයින්": 5291,
      "යියා": 5292,
      "යවලා": 5293,
      "රීමට": 5294,
      "වන්ඩ": 5295,
      "හත": 5296,
      "හන්ද": 5297,
      "ියි": 5298,
      "ියෙ": 5299,
      "ත්වා": 5300,
      "ක්තිය": 5301,
      "ක්කා": 5302,
      "වාට": 5303,
      "නිර": 5304,
      "නිදා": 5305,
      "නිතර": 5306,
      "නිරුව": 5307,
      "විරි": 5308,
      "රිමාන්ඩ්": 5309,
      "නැග": 5310,
      "වෙස්": 5311,
      "වැඳ": 5312,
      "සිග": 5313,
      "සිල": 5314,
      "කොඩි": 5315,
      "කාරු": 5316,
      "එකද": 5317,
      "එකකින්": 5318,
      "එකෙකුට": 5319,
      "නාකි": 5320,
      "මුලා": 5321,
      "හොයනවා": 5322,
      "යාළුව": 5323,
      "නොය": 5324,
      "නොකී": 5325,
      "දේසි": 5326,
      "වැඩසටහ": 5327,
      "ගන්නට": 5328,
      "ගෙවන්නේ": 5329,
      "යුම්": 5330,
      "පැල": 5331,
      "පැකට්": 5332,
      "අයෙක්": 5333,
      "හරින්න": 5334,
      "වෙලාවත්": 5335,
      "ජනයක්": 5336,
      "ඇතිව": 5337,
      "ගිලන්": 5338,
      "අවං": 5339,
      "හුරු": 5340,
      "ප්රමාණ": 5341,
      "ලුන්": 5342,
      "හිතෙන්නෙ": 5343,
      "ප්‍රසිද්ධ": 5344,
      "ප්‍රේම": 5345,
      "කෙලව": 5346,
      "කෙලින්ම": 5347,
      "ජාවාර": 5348,
      "සැමන්": 5349,
      "බාර්": 5350,
      "පත්කර": 5351,
      "වරන": 5352,
      "කෝප": 5353,
      "කෝච්චි": 5354,
      "කැර": 5355,
      "මන්ත්‍රී": 5356,
      "රෝ": 5357,
      "ටිකයි": 5358,
      "ජික්": 5359,
      "දුවේ": 5360,
      "දුවන්න": 5361,
      "ජයග්‍රහ": 5362,
      "දේශපාලනයෙන්": 5363,
      "බෙල්ල": 5364,
      "වැරදී": 5365,
      "රටටත්": 5366,
      "යෝජනය": 5367,
      "කතාකරන්න": 5368,
      "මීන්": 5369,
      "පහුව": 5370,
      "මෝල්": 5371,
      "ස්ථි": 5372,
      "ස්ථාව": 5373,
      "කන්නා": 5374,
      "කියාගෙන": 5375,
      "කතාවේ": 5376,
      "පෙනෙන්න": 5377,
      "කොමසා": 5378,
      "දිනවල": 5379,
      "චිත්ර": 5380,
      "සිටින්න": 5381,
      "සිටින්නේ": 5382,
      "පිළිගන්න": 5383,
      "සරදියෙ": 5384,
      "සකස්": 5385,
      "අත්යව": 5386,
      "පැත්තකින්": 5387,
      "බැහැනේ": 5388,
      "ගණනාවක්": 5389,
      "සලකා": 5390,
      "චන්දෙන්": 5391,
      "මරනවා": 5392,
      "ඉල්ලු": 5393,
      "ඉල්ලනවා": 5394,
      "සිදුවේ": 5395,
      "20ක්": 5396,
      "පස්සට": 5397,
      "මාර්තු": 5398,
      "පින්තුර": 5399,
      "කයන්ගෙන්": 5400,
      "ශිෂ්ය": 5401,
      "ඉදිරියටත්": 5402,
      "ගෝඨාට": 5403,
      "මනුස්සයට": 5404,
      "ප්රතිශ": 5405,
      "අලුතින්": 5406,
      "අම්මල": 5407,
      "ලැබුණු": 5408,
      "හරකු": 5409,
      "පොහොසත්": 5410,
      "එළව": 5411,
      "එළවලු": 5412,
      "ඉන්දි": 5413,
      "අවුල": 5414,
      "පූජ": 5415,
      "ගෙවල්වල": 5416,
      "හොයාගෙන": 5417,
      "ලෝකෙම": 5418,
      "ගනිමින්": 5419,
      "ජාතිවාදී": 5420,
      "වෙනිදා": 5421,
      "වැටුප්": 5422,
      "සෙනඟ": 5423,
      "ස්වාමින්": 5424,
      "වෙනවනේ": 5425,
      "වේදයක්": 5426,
      "වචනය": 5427,
      "අමාරුවෙන්": 5428,
      "මැදපෙරදිග": 5429,
      "හැදුවා": 5430,
      "ගෑනුන්ට": 5431,
      "එලවලු": 5432,
      "මොහුගේ": 5433,
      "කැපවීම": 5434,
      "තිබුණේ": 5435,
      "අනිවාර්යයෙන්": 5436,
      "විඳිනවා": 5437,
      "වුවද": 5438,
      "පුහුණු": 5439,
      "ක්‍රීඩා": 5440,
      "භික්ෂූන්": 5441,
      "පල්ලි": 5442,
      "‍‍‍‍": 5443,
      "පැමිණෙන": 5444,
      "කපුවා": 5445,
      "සහෝදරයා": 5446,
      "නිෂ්පාදනය": 5447,
      "පුරවැසියන්": 5448,
      "නිහතමා": 5449,
      "ඊළඟට": 5450,
      "හඳුනා": 5451,
      "හානියක්": 5452,
      "දේශ": 5453,
      "දුරකතන": 5454,
      "යථාර්": 5455,
      "පරීක්ෂා": 5456,
      "උපාධිය": 5457,
      "ආදායම": 5458,
      "ජාතීන්": 5459,
      "නිවසේ": 5460,
      "බැංකුව": 5461,
      "බේරුනා": 5462,
      "වර්තමාන": 5463,
      "පරපුරට": 5464,
      "අමතරව": 5465,
      "සන්ධානය": 5466,
      "කොන්ත්‍රා": 5467,
      "හදවතින්ම": 5468,
      "කැසිනෝ": 5469,
      "ආත්මාර්ථකාමී": 5470,
      "සුඛෝප": 5471,
      "මැණික්": 5472,
      "චම්පික": 5473,
      "අනුරාධ": 5474,
      "කතෝලික": 5475,
      "අසු": 5476,
      "අව්": 5477,
      "අශ්": 5478,
      "අමත": 5479,
      "අසූ": 5480,
      "ආනය": 5481,
      "ආචාරය": 5482,
      "ආනන්ද": 5483,
      "ඉත්ත": 5484,
      "ඉරා": 5485,
      "ඒවගේම": 5486,
      "ඕයි": 5487,
      "ඕකයි": 5488,
      "කස්": 5489,
      "කමි": 5490,
      "කපල": 5491,
      "කක්කු": 5492,
      "චේ": 5493,
      "ජඩ": 5494,
      "ජයක්": 5495,
      "ඤ්": 5496,
      "ඤා": 5497,
      "තම්බ": 5498,
      "දෙන්": 5499,
      "නසා": 5500,
      "පබා": 5501,
      "පට්ටම": 5502,
      "බඳ": 5503,
      "භු": 5504,
      "ඹි": 5505,
      "යන්ත": 5506,
      "යනවද": 5507,
      "රවට": 5508,
      "ලමය": 5509,
      "වත": 5510,
      "වකු": 5511,
      "වට්": 5512,
      "වදින්න": 5513,
      "සඟ": 5514,
      "සලා": 5515,
      "හංග": 5516,
      "ුණා": 5517,
      "ක්රිය": 5518,
      "යින්ගේ": 5519,
      "වාදි": 5520,
      "කරගත": 5521,
      "කරපන්": 5522,
      "නිශාන්ත": 5523,
      "විකි": 5524,
      "විල්ල": 5525,
      "විනෝ": 5526,
      "විසඳ": 5527,
      "ගේන": 5528,
      "ගේනවා": 5529,
      "හිල්": 5530,
      "තුවා": 5531,
      "තුන්ට": 5532,
      "තුන්ද": 5533,
      "නැගී": 5534,
      "හැති": 5535,
      "හැදිය": 5536,
      "වැජ": 5537,
      "සිතුව": 5538,
      "කොන්ඩ": 5539,
      "මාස්": 5540,
      "මාසේ": 5541,
      "කාලි": 5542,
      "නානා": 5543,
      "හොයන්නේ": 5544,
      "සුනිල්": 5545,
      "ර්ඩ්": 5546,
      "කුලී": 5547,
      "දැන්නම්": 5548,
      "සාස": 5549,
      "සාක්ක": 5550,
      "ීමයි": 5551,
      "නොතේරෙන": 5552,
      "තරමක්": 5553,
      "දේවි": 5554,
      "ටිකට": 5555,
      "ගන්නයි": 5556,
      "ගැහි": 5557,
      "ගෙවනවා": 5558,
      "හෙවත්": 5559,
      "බලයේ": 5560,
      "බලවේග": 5561,
      "සේනාව": 5562,
      "දීමේ": 5563,
      "වේදිය": 5564,
      "පැණි": 5565,
      "ගොබ්": 5566,
      "තාවයට": 5567,
      "ඔබතුමන්": 5568,
      "රණ්": 5569,
      "නවතා": 5570,
      "සියට": 5571,
      "ජනප්‍රිය": 5572,
      "පාලකයො": 5573,
      "දියට": 5574,
      "ගිර": 5575,
      "කොටු": 5576,
      "හුරේ": 5577,
      "ප්රසාද": 5578,
      "මිනිස්සුත්": 5579,
      "ප්‍රමාණ": 5580,
      "ප්‍රවේශ": 5581,
      "කෙරුව": 5582,
      "යුතුද": 5583,
      "ජාත": 5584,
      "සැරයක්": 5585,
      "නීතී": 5586,
      "වියේ": 5587,
      "ලියු": 5588,
      "දෙන්නත්": 5589,
      "රීන්": 5590,
      "බවද": 5591,
      "වීරව": 5592,
      "කැත": 5593,
      "කලයුතු": 5594,
      "නියට": 5595,
      "බේත්": 5596,
      "කම්මැ": 5597,
      "සමස්ත": 5598,
      "ගොඩට": 5599,
      "තනතුරු": 5600,
      "තිබුනොත්": 5601,
      "වහම": 5602,
      "ඕනම": 5603,
      "කතාද": 5604,
      "හිටගෙන": 5605,
      "රජෙක්": 5606,
      "අහන්නෙ": 5607,
      "බෝඩි": 5608,
      "සමහරක්": 5609,
      "විදියක්": 5610,
      "පමනයි": 5611,
      "මෝටර්": 5612,
      "දරුවට": 5613,
      "ඩ්රයි": 5614,
      "ග්රාම": 5615,
      "වැරදිලා": 5616,
      "බයියෝ": 5617,
      "දිනන": 5618,
      "ගෑවිලා": 5619,
      "සරල": 5620,
      "පතමු": 5621,
      "සීන්": 5622,
      "එක්කො": 5623,
      "අනන්ත": 5624,
      "මහාචාර්ය": 5625,
      "ඉල්ලලා": 5626,
      "ඉල්ලන්නේ": 5627,
      "...........": 5628,
      "අල්ලනවා": 5629,
      "සේවයේ": 5630,
      "හමුවේ": 5631,
      "තියෙන්නෙත්": 5632,
      "ගම්වල": 5633,
      "චීනෙට": 5634,
      "කළාද": 5635,
      "කාලෙකින්": 5636,
      "පුවම": 5637,
      "ගුණයක්": 5638,
      "මෙහෙට": 5639,
      "ඉන්දියාවට": 5640,
      "ඉන්දියාවෙ": 5641,
      "කාන්තාවෝ": 5642,
      "දානන්ද": 5643,
      "ගොල්ලන්ගේ": 5644,
      "දූෂිත": 5645,
      "එළියේ": 5646,
      "කෙල්ලෙක්": 5647,
      "ල්ලුම්": 5648,
      "නගරය": 5649,
      "වාර්තාව": 5650,
      "එකාම": 5651,
      "වේවිද": 5652,
      "සැලකිලි": 5653,
      "අතිගරු": 5654,
      "ඒකටත්": 5655,
      "සිතන්න": 5656,
      "අඩුවෙන්": 5657,
      "ජේවී": 5658,
      "ඝාතන": 5659,
      "කෙසේද": 5660,
      "පවත්වා": 5661,
      "නිලධාරීන්ට": 5662,
      "පර්යේ": 5663,
      "පමණින්": 5664,
      "රස්සා": 5665,
      "රෑට": 5666,
      "ඔබතුමාගේ": 5667,
      "වරදට": 5668,
      "ජෝගි": 5669,
      "කරුණාකරලා": 5670,
      "විහිලු": 5671,
      "බනිනවා": 5672,
      "ගැහුවේ": 5673,
      "හදිස්ස": 5674,
      "ඉන්නවනේ": 5675,
      "මෑත": 5676,
      "එසේම": 5677,
      "විකුණලා": 5678,
      "කණගාට": 5679,
      "දෙමව්පියෝ": 5680,
      "දෙමව්පියන්": 5681,
      "ශීර්": 5682,
      "වළං": 5683,
      "දෙමාපියන්ට": 5684,
      "ලෑස්ති": 5685,
      "වෘත්ති": 5686,
      "අපේක්ෂක": 5687,
      "වත්තේ": 5688,
      "දමන්න": 5689,
      "පුරවැසිභාවය": 5690,
      "අතීතය": 5691,
      "නිකම්ම": 5692,
      "වලිනුත්": 5693,
      "සුනඛ": 5694,
      "සියළුම": 5695,
      "අභියෝ": 5696,
      "ඇත්නම්": 5697,
      "හඳුන්": 5698,
      "පාතාල": 5699,
      "විකුනන්න": 5700,
      "ඇතැයි": 5701,
      "භෝගී": 5702,
      "දුරකථ": 5703,
      "නිශ්පාදන": 5704,
      "මට්ටමේ": 5705,
      "වැළැක්": 5706,
      "කර්මාන්ත": 5707,
      "පිරුණු": 5708,
      "ආශ්චර්යය": 5709,
      "වංචාව": 5710,
      "ඡායාරූප": 5711,
      "ගාමිණී": 5712,
      "ඇතුලත": 5713,
      "විරුද්දව": 5714,
      "උදාහරණයක්": 5715,
      "හුඟක්": 5716,
      "හොල්මන්": 5717,
      "පෝලිමේ": 5718,
      "බණ්ඩාර": 5719,
      "ඉංග්රීසි": 5720,
      "පණ්ඩිත": 5721,
      "රස්තියාදු": 5722,
      "22": 5723,
      "75": 5724,
      "අඟ": 5725,
      "අපු": 5726,
      "අද්": 5727,
      "කමේ": 5728,
      "ගර": 5729,
      "ගව": 5730,
      "චය": 5731,
      "චූ": 5732,
      "ණනි": 5733,
      "තබ": 5734,
      "තදින්": 5735,
      "දයි": 5736,
      "දණ්ඩ": 5737,
      "නෙක්": 5738,
      "පයට": 5739,
      "පන්ද": 5740,
      "පවිත්": 5741,
      "බස්ස": 5742,
      "බරක්": 5743,
      "මයක්": 5744,
      "මරණය": 5745,
      "මන්ට්": 5746,
      "යනා": 5747,
      "යන්නෙත්": 5748,
      "රනි": 5749,
      "රෙන්": 5750,
      "ලලිත්": 5751,
      "වපුර": 5752,
      "ශු": 5753,
      "ශරී": 5754,
      "හාව": 5755,
      "ෆල්": 5756,
      "්යා": 5757,
      "න්නක්": 5758,
      "ත්‍යා": 5759,
      "ෙනේ": 5760,
      "තිලා": 5761,
      "වික": 5762,
      "විස්ස": 5763,
      "මේල්": 5764,
      "හිගන්න": 5765,
      "නැගු": 5766,
      "මිළ": 5767,
      "මිතුර": 5768,
      "සිතේ": 5769,
      "පාරය": 5770,
      "කොතන": 5771,
      "කොරියාව": 5772,
      "මාමා": 5773,
      "කාරණය": 5774,
      "එකනෙ": 5775,
      "දෙවල්": 5776,
      "දෙවැනි": 5777,
      "දෙවෙනි": 5778,
      "කිතු": 5779,
      "දිවා": 5780,
      "මුගෙ": 5781,
      "මුතුව": 5782,
      "සුරුව": 5783,
      "සුජිත්": 5784,
      "මෙක්": 5785,
      "යාර්": 5786,
      "නොහැකියි": 5787,
      "තාක්": 5788,
      "තාක්ෂණ": 5789,
      "දේකට": 5790,
      "ගැනු": 5791,
      "ගැණු": 5792,
      "රාජා": 5793,
      "ගෙම්බ": 5794,
      "ගෝ": 5795,
      "හෙලා": 5796,
      "ගෙනි": 5797,
      "හාම්": 5798,
      "මොලයක්": 5799,
      "මොනවට": 5800,
      "වගේද": 5801,
      "අපිම": 5802,
      "බලපු": 5803,
      "බලධාරී": 5804,
      "නො": 5805,
      "ට්රයි": 5806,
      "මහනුවර": 5807,
      "ගොම්": 5808,
      "ගොසි": 5809,
      "මැලේසිය": 5810,
      "සියයට": 5811,
      "ජනප්රිය": 5812,
      "ලේසි": 5813,
      "ගිල": 5814,
      "ලංකාවෙත්": 5815,
      "මමයි": 5816,
      "මමනම්": 5817,
      "ප්රමුඛ": 5818,
      "හිතවත්": 5819,
      "ගියෙ": 5820,
      "කමත්": 5821,
      "ලැක්": 5822,
      "ලැස්": 5823,
      "නීවා": 5824,
      "ගාණ": 5825,
      "වරප්රසාද": 5826,
      "දෙනව": 5827,
      "කෝඩ්": 5828,
      "දෙන්නම්": 5829,
      "ගහනව": 5830,
      "ටුයි": 5831,
      "වීරයෙක්": 5832,
      "වීරයෝ": 5833,
      "මතට": 5834,
      "කැල": 5835,
      "නියේ": 5836,
      "මන්දි": 5837,
      "බේරිලා": 5838,
      "ණ්ඩුව": 5839,
      "සමයේ": 5840,
      "තිබූ": 5841,
      "කින්ම": 5842,
      "ළුවා": 5843,
      "පක්ෂයට": 5844,
      "කතාකරන": 5845,
      "යකදී": 5846,
      "අහනකොට": 5847,
      "ඔයාලට": 5848,
      "භාවිත": 5849,
      "කයිවා": 5850,
      "කයින්ගේ": 5851,
      "තොග": 5852,
      "කෑමට": 5853,
      "කෑමක්": 5854,
      "පේක්ෂ": 5855,
      "පලවෙනි": 5856,
      "තත්වෙ": 5857,
      "මොනවත්": 5858,
      "බුදුන්ගේ": 5859,
      "මෙයින්": 5860,
      "බ්රි": 5861,
      "සොහො": 5862,
      "අත්යාව": 5863,
      "කලින්ම": 5864,
      "හැකිද": 5865,
      "සීයක්": 5866,
      "සීට්": 5867,
      "දක්වන": 5868,
      "හාමුදුරුවන්": 5869,
      "එක්තරා": 5870,
      "පාර්ශ": 5871,
      "රොෂාන්": 5872,
      "ආරක්ෂාවට": 5873,
      "සේවකයන්ට": 5874,
      "පෝලිම්": 5875,
      "යයිද": 5876,
      "චීනේ": 5877,
      "චීනයේ": 5878,
      "තිබ්බත්": 5879,
      "සිටී": 5880,
      "වැඩේට": 5881,
      "ප්පුව": 5882,
      "තේරුමක්": 5883,
      "ජීවත්වන": 5884,
      "කියන්නෙත්": 5885,
      "කළාම": 5886,
      "දැක්මක්": 5887,
      "පුවත": 5888,
      "රහස්": 5889,
      "කාන්තාවන්ට": 5890,
      "ප්රතිපල": 5891,
      "තේරුම්ගන්න": 5892,
      "ලබන්න": 5893,
      "කේන්": 5894,
      "පටන්ගන්න": 5895,
      "විද්යාල": 5896,
      "මැතිවරණයක්": 5897,
      "ඉන්දු": 5898,
      "කෙල්ලො": 5899,
      "සුදුසුයි": 5900,
      "අවුරැ": 5901,
      "කෘති": 5902,
      "බයික්": 5903,
      "වෘත්ත": 5904,
      "ප්‍රතිපල": 5905,
      "ප්‍රතිඵල": 5906,
      "වැසිකිලි": 5907,
      "ගෝටාට": 5908,
      "වයිරස්": 5909,
      "පිටිපස්සේ": 5910,
      "ගැටබ": 5911,
      "වෙනවනම්": 5912,
      "තේරෙන්නෙ": 5913,
      "පාස්පෝට්": 5914,
      "අහන්නත්": 5915,
      "තැන්වල": 5916,
      "නවත්තලා": 5917,
      "පාදඩ": 5918,
      "සෝභි": 5919,
      "සේවාව": 5920,
      "අවසානයේ": 5921,
      "බයියන්ට": 5922,
      "හැදුන": 5923,
      "විනිමය": 5924,
      "විනිසුරු": 5925,
      "ජෝකර්": 5926,
      "මනාප": 5927,
      "කොරන්න": 5928,
      "ආයුෂ": 5929,
      "ශ්‍රම": 5930,
      "කොහේද": 5931,
      "දෙමව්පියන්ට": 5932,
      "පරම්පරා": 5933,
      "ටොයිය": 5934,
      "මිනිසාට": 5935,
      "කිලෝමීටර්": 5936,
      "අවබෝධයක්": 5937,
      "කව්රුත්": 5938,
      "භික්ෂු": 5939,
      "බහින්න": 5940,
      "ආවරණයක්": 5941,
      "රඟපා": 5942,
      "ඇදිරිනීතිය": 5943,
      "ඩයස්": 5944,
      "රකින": 5945,
      "නොමැතිව": 5946,
      "අක්කා": 5947,
      "සහිතව": 5948,
      "නිෂ්පාදන": 5949,
      "නිහඩ": 5950,
      "සිංගප්පු": 5951,
      "අහුවෙන": 5952,
      "ඇත්ද": 5953,
      "වගකිවයුත්ත": 5954,
      "නරකයි": 5955,
      "වන්දනා": 5956,
      "සමිදු": 5957,
      "හිරිහැර": 5958,
      "ලේසියි": 5959,
      "පිස්සෙක්": 5960,
      "හිමියන්": 5961,
      "පාසලේ": 5962,
      "ඉංග්‍රී": 5963,
      "විසදුම": 5964,
      "සහභාගි": 5965,
      "සාධක": 5966,
      "ගොඩනැගිලි": 5967,
      "ජනගහනය": 5968,
      "රියදුරන්": 5969,
      "කප්පම්": 5970,
      "වසන්ගත": 5971,
      "විවේචනය": 5972,
      "රැවටු": 5973,
      "ඉපදිලා": 5974,
      "ජෙනරාල්": 5975,
      "ගැසට්": 5976,
      "තනිකරම": 5977,
      "ඊශ්‍රාය": 5978,
      "හැමදාමත්": 5979,
      "ඉන්ධන": 5980,
      "අවංකව": 5981,
      "සරදියෙල්": 5982,
      "සුඛෝපභෝගී": 5983,
      "අත්යාවශ්ය": 5984,
      "3ක්": 5985,
      "95": 5986,
      "අර්ථ": 5987,
      "අවලංගු": 5988,
      "අසරන": 5989,
      "ඇසු": 5990,
      "ඇතුව": 5991,
      "ඈත්": 5992,
      "ඉට": 5993,
      "ඉගන": 5994,
      "උම්": 5995,
      "උබේ": 5996,
      "උපත": 5997,
      "එව්": 5998,
      "එසැ": 5999,
      "එවන": 6000,
      "එෆ්": 6001,
      "එදත්": 6002,
      "ඒවගේ": 6003,
      "කකු": 6004,
      "කවත්": 6005,
      "ඛේද": 6006,
      "ගහා": 6007,
      "ගතේ": 6008,
      "ඟි": 6009,
      "ජයා": 6010,
      "තලේ": 6011,
      "තට්ටු": 6012,
      "තල්ලු": 6013,
      "දලා": 6014,
      "ධන": 6015,
      "නක": 6016,
      "නහි": 6017,
      "නරු": 6018,
      "නමා": 6019,
      "නට්": 6020,
      "ඳී": 6021,
      "ඳක්": 6022,
      "බරි": 6023,
      "මනෝ": 6024,
      "යකො": 6025,
      "යකි": 6026,
      "රත්තර": 6027,
      "ලන්න": 6028,
      "වස්": 6029,
      "වනි": 6030,
      "වතාව": 6031,
      "වට්ට": 6032,
      "වඳු": 6033,
      "ෂේ": 6034,
      "ෆා": 6035,
      "ෆී": 6036,
      "ෝ": 6037,
      "ෝල": 6038,
      "ෝල්": 6039,
      "ක්ය": 6040,
      "කරගත්ත": 6041,
      "කරගැනීම": 6042,
      "කරද්දි": 6043,
      "තිත": 6044,
      "තිබි": 6045,
      "තිබිල": 6046,
      "නිදැ": 6047,
      "නිවන": 6048,
      "නිපද": 6049,
      "ල්ම්": 6050,
      "විරැ": 6051,
      "හිතින්": 6052,
      "තුරුව": 6053,
      "තුංග": 6054,
      "නැන්ද": 6055,
      "හැග": 6056,
      "හැබයි": 6057,
      "වේ": 6058,
      "සිඳු": 6059,
      "දුකට": 6060,
      "පුතු": 6061,
      "කොත්තු": 6062,
      "රුසිය": 6063,
      "මාකට්": 6064,
      "මානයක්": 6065,
      "ලිං": 6066,
      "එකෙ": 6067,
      "එකටත්": 6068,
      "එකමුතුව": 6069,
      "දෙක්": 6070,
      "දෙව්": 6071,
      "දිත්": 6072,
      "මුට": 6073,
      "සුමක්": 6074,
      "වුල්": 6075,
      "යක්වත්": 6076,
      "මෙවා": 6077,
      "මෙහා": 6078,
      "මෙතැන": 6079,
      "යානා": 6080,
      "කුමන": 6081,
      "දාන්නෙ": 6082,
      "දාපල්ලා": 6083,
      "දාහක්": 6084,
      "නම්බු": 6085,
      "දැහැ": 6086,
      "කටයුත්ත": 6087,
      "වැඩවලට": 6088,
      "රාත්රී": 6089,
      "හෙලි": 6090,
      "ගෙනාව": 6091,
      "ගෙනාවේ": 6092,
      "ගෙනෙන්න": 6093,
      "මොත්": 6094,
      "මොකට": 6095,
      "මොහොම": 6096,
      "වගේනේ": 6097,
      "බලකා": 6098,
      "බලන්ඩ": 6099,
      "බලපල්ලා": 6100,
      "නෑහෑ": 6101,
      "දීන්": 6102,
      "දීපල්ලා": 6103,
      "ඉන්නා": 6104,
      "නෙමෙ": 6105,
      "පැරණ": 6106,
      "රියන්": 6107,
      "රියෙක්": 6108,
      "ක්ෂණය": 6109,
      "ලංකන්": 6110,
      "ගොන්නු": 6111,
      "අයම": 6112,
      "අයෙත්": 6113,
      "අයෙකුට": 6114,
      "ඔබව": 6115,
      "පාලුව": 6116,
      "පාලකයන්ට": 6117,
      "ඇතිද": 6118,
      "ඇතිවන": 6119,
      "ගිරිය": 6120,
      "ගිහිය": 6121,
      "හුර": 6122,
      "හුණු": 6123,
      "ලුත්": 6124,
      "ලුම්": 6125,
      "ලුණු": 6126,
      "රෝල්": 6127,
      "රෝගිය": 6128,
      "ප්‍රදර්ශනය": 6129,
      "ද්දර": 6130,
      "ලෙස්": 6131,
      "ලෙහෙ": 6132,
      "තුවෙන්": 6133,
      "කෙතරම්": 6134,
      "හොඳද": 6135,
      "සැම්බර්": 6136,
      "බාධා": 6137,
      "පත්වෙලා": 6138,
      "රැජි": 6139,
      "ගාන්න": 6140,
      "ගාලා": 6141,
      "බොර": 6142,
      "වරයාට": 6143,
      "ලියල": 6144,
      "ලියන්නේ": 6145,
      "බිත්තර": 6146,
      "වනං": 6147,
      "දන්නව": 6148,
      "කලයුතුයි": 6149,
      "සංග": 6150,
      "සංවේදී": 6151,
      "සමී": 6152,
      "ගොඩේ": 6153,
      "කාලී": 6154,
      "පිරිලා": 6155,
      "තනතුර": 6156,
      "ජනතාවක්": 6157,
      "ජනතාවගෙන්": 6158,
      "දුවට": 6159,
      "ජයතු": 6160,
      "ජයවර්ධන": 6161,
      "තිබුනෙ": 6162,
      "දේශපාලකයෙක්": 6163,
      "බෙර": 6164,
      "පක්ෂයකට": 6165,
      "කිසිසේ": 6166,
      "ගලවලා": 6167,
      "කියන්නකෝ": 6168,
      "පන්තිය": 6169,
      "පරිගණ": 6170,
      "හිටියනම්": 6171,
      "අහස": 6172,
      "වර්ගය": 6173,
      "ඉදිකිරීම්": 6174,
      "කඩන්න": 6175,
      "කිව්වලු": 6176,
      "කෑවේ": 6177,
      "උඹලගේ": 6178,
      "ලබාගෙන": 6179,
      "සම්පන්න": 6180,
      "කාරයින්": 6181,
      "ආරංචි": 6182,
      "ආරංච": 6183,
      "අතහැර": 6184,
      "පවුලට": 6185,
      "ගියාද": 6186,
      "සිටිමි": 6187,
      "බ්‍රි": 6188,
      "ශාන්": 6189,
      "දුන්නනම්": 6190,
      "වරුන්ගේ": 6191,
      "අත්සන්": 6192,
      "ආණ්ඩුවෙන්": 6193,
      "පැත්තෙ": 6194,
      "සීය": 6195,
      "සීමා": 6196,
      "අන්ධ": 6197,
      "දක්වන්න": 6198,
      "එක්කෙනා": 6199,
      "දියුනුව": 6200,
      "දෙනාගේ": 6201,
      "මරන්නේ": 6202,
      "තැනකට": 6203,
      "මහත්තයාගේ": 6204,
      "ආයත": 6205,
      "වැඩියෙන්ම": 6206,
      "පෙන්නන": 6207,
      "ප්‍රශ්නේ": 6208,
      "ංශයේ": 6209,
      "අපරාදෙ": 6210,
      "පීඩ": 6211,
      "පුද්ගලයන්": 6212,
      "නැවතුම්": 6213,
      "අනාථ": 6214,
      "සුබපැතුම්": 6215,
      "සමාජයක්": 6216,
      "පුවතක්": 6217,
      "ඔවුනට": 6218,
      "මෙහෙය": 6219,
      "රහක්": 6220,
      "රහසක්": 6221,
      "ඉස්ලාම්": 6222,
      "කරාද": 6223,
      "කරාම": 6224,
      "ලැබුනා": 6225,
      "බල්ලන්": 6226,
      "රූපය": 6227,
      "මනමාල": 6228,
      "යවපු": 6229,
      "ලක්ෂයක්": 6230,
      "සියල්ලම": 6231,
      "සාධාරන": 6232,
      "මාර්ගයක්": 6233,
      "ඇමෙරිකානු": 6234,
      "දක්ෂයි": 6235,
      "නිකන්ම": 6236,
      "මරණයට": 6237,
      "වැටුන": 6238,
      "ස්වාමීන්": 6239,
      "බැලුවේ": 6240,
      "අඩුවට": 6241,
      "හැදුවට": 6242,
      "ආගමක්": 6243,
      "ව්යාපාරි": 6244,
      "අැති": 6245,
      "ආන්ඩුවට": 6246,
      "පැනල": 6247,
      "කඩාගෙන": 6248,
      "වටේට": 6249,
      "නඩුවක්": 6250,
      "විහිලුව": 6251,
      "හැසිරෙන": 6252,
      "මගුල": 6253,
      "ගානකට": 6254,
      "ආර්ථිකයට": 6255,
      "කොමිසම": 6256,
      "තියෙනවනම්": 6257,
      "තරමටම": 6258,
      "මණ්ඩල": 6259,
      "මණ්ඩලය": 6260,
      "වෘත්තිය": 6261,
      "වෙළඳ": 6262,
      "ප්රාදේශීය": 6263,
      "බැනල": 6264,
      "පැවත": 6265,
      "පුරවැසිකම": 6266,
      "මෙතුමාගේ": 6267,
      "නාටක": 6268,
      "සීමාව": 6269,
      "විශිෂ්ඨ": 6270,
      "දැමීමට": 6271,
      "පෙට්ටි": 6272,
      "භූමිය": 6273,
      "මල්ලී": 6274,
      "රකින්න": 6275,
      "උත්තමය": 6276,
      "ව්යස": 6277,
      "කණගාටුදායක": 6278,
      "හිස්බු": 6279,
      "යුරෝපයේ": 6280,
      "පන්සලට": 6281,
      "වැඩිපුරම": 6282,
      "උසාවිය": 6283,
      "එංගලන්තේ": 6284,
      "ජෙප්": 6285,
      "වලක්වන්න": 6286,
      "අත්දැකීම්": 6287,
      "බැදලා": 6288,
      "හිනාවෙන්න": 6289,
      "අතුරුදහන්": 6290,
      "අස්සෙ": 6291,
      "සාධු": 6292,
      "ක්රීඩ": 6293,
      "කර්මාන්තය": 6294,
      "බන්දුල": 6295,
      "ඉස්පිරිතාල": 6296,
      "සිංගප්පූරුව": 6297,
      "අයුරින්": 6298,
      "පේනවනේ": 6299,
      "භයානක": 6300,
      "මගීන්": 6301,
      "ආශිර්වාදය": 6302,
      "සංවර්දනය": 6303,
      "භාෂාව": 6304,
      "පණිවි": 6305,
      "බඹරු": 6306,
      "දුප්පතා": 6307,
      "සුනාමි": 6308,
      "ශ්‍රේෂ්ඨ": 6309,
      "පම්පෝ": 6310,
      "සජිය": 6311,
      "සන්තෝෂ": 6312,
      "දේශප්රේමී": 6313,
      "ගුණාත්මක": 6314,
      "තදබදය": 6315,
      "සංඛ්යාව": 6316,
      "සෙරෙප්පු": 6317,
      "අන්තර්ජා": 6318,
      "තණකොළ": 6319,
      "සිගරට්": 6320,
      "ස්ථිර": 6321,
      "නිහතමානී": 6322,
      "තුන්දෙන": 6323,
      "වැජඹ": 6324,
      "මොහොමඩ්": 6325,
      "පැරණි": 6326,
      "01": 6327,
      "2000": 6328,
      "45": 6329,
      "?.": 6330,
      "ආර්ය": 6331,
      "ආප්ප": 6332,
      "ආපන": 6333,
      "ඇන්ද": 6334,
      "උප්": 6335,
      "උනු": 6336,
      "උගත": 6337,
      "එනම්": 6338,
      "එල්ලුම්": 6339,
      "ඒවත්": 6340,
      "ඒකම": 6341,
      "ඔහො": 6342,
      "ඔෆි": 6343,
      "කඳ": 6344,
      "කවි": 6345,
      "කන්ට": 6346,
      "කණු": 6347,
      "කපන": 6348,
      "ගස්ස": 6349,
      "ජරාව": 6350,
      "ටේ": 6351,
      "තනින්": 6352,
      "දෘ": 6353,
      "ධන්": 6354,
      "නත": 6355,
      "නගන්න": 6356,
      "නග්": 6357,
      "පතේ": 6358,
      "බස": 6359,
      "මරි": 6360,
      "මඩු": 6361,
      "මතේ": 6362,
      "මනක්": 6363,
      "යුව": 6364,
      "යලි": 6365,
      "රති": 6366,
      "රංග": 6367,
      "වනා": 6368,
      "සවස": 6369,
      "සපෝට්": 6370,
      "සපත්තු": 6371,
      "හජ්": 6372,
      "ුත්": 6373,
      "‍ට": 6374,
      "‍්‍ර": 6375,
      "න්‍ය": 6376,
      "ත්රය": 6377,
      "ම්බා": 6378,
      "කරගත්තා": 6379,
      "ස්වය": 6380,
      "නිත්": 6381,
      "නිවේද": 6382,
      "නිදාගන්න": 6383,
      "විධි": 6384,
      "තුරැ": 6385,
      "පික්": 6386,
      "පිපි": 6387,
      "වෙර": 6388,
      "වෙසෙන": 6389,
      "වැහ": 6390,
      "වැලක්": 6391,
      "මිරි": 6392,
      "මිතුරන්": 6393,
      "සිවුරු": 6394,
      "දුනි": 6395,
      "පුට": 6396,
      "කොලො": 6397,
      "මාරුව": 6398,
      "කාගෙන්": 6399,
      "එකී": 6400,
      "දෙසා": 6401,
      "දෙයින්": 6402,
      "දෙරන": 6403,
      "කිරු": 6404,
      "දිල්": 6405,
      "දිනෙ": 6406,
      "රටයි": 6407,
      "මෙතෙක්": 6408,
      "යාත්": 6409,
      "ත්තක්": 6410,
      "කුඩ": 6411,
      "කුමා": 6412,
      "කුට්ටම": 6413,
      "දැකිය": 6414,
      "වෙනුව": 6415,
      "කටවල්": 6416,
      "ටික්": 6417,
      "ගන්නව": 6418,
      "ගන්නවත්": 6419,
      "හාස්": 6420,
      "බලධා": 6421,
      "බැරිය": 6422,
      "බැවිනි": 6423,
      "සේවි": 6424,
      "දීත්": 6425,
      "පොතේ": 6426,
      "පොන්සේ": 6427,
      "බුද්දා": 6428,
      "පැළ": 6429,
      "පැටිය": 6430,
      "පැකර්": 6431,
      "ගැනවත්": 6432,
      "ලංග": 6433,
      "ගොනු": 6434,
      "ගොඨා": 6435,
      "ගොටා": 6436,
      "මටම": 6437,
      "ජනක": 6438,
      "නැතිවෙනවා": 6439,
      "ගිනස්": 6440,
      "අවයව": 6441,
      "අවතාර": 6442,
      "සහල්": 6443,
      "සහනය": 6444,
      "නිසාත්": 6445,
      "ප්රසන්න": 6446,
      "ප්රයෝජන": 6447,
      "ලුන": 6448,
      "පෙත්": 6449,
      "කමල්": 6450,
      "රයො": 6451,
      "ප්‍රර්ථනා": 6452,
      "ප්‍රථම": 6453,
      "ලෙසම": 6454,
      "කෙරුවා": 6455,
      "යුතුකම": 6456,
      "හොඳේ": 6457,
      "කළයුතුයි": 6458,
      "සැලැස්": 6459,
      "බාල්": 6460,
      "රැගෙන": 6461,
      "රැලක්": 6462,
      "ලියපු": 6463,
      "ලොල්": 6464,
      "ටුම්": 6465,
      "වනස": 6466,
      "රේට": 6467,
      "කැඩ": 6468,
      "කැබි": 6469,
      "නියත": 6470,
      "රෙකෝඩ්": 6471,
      "කියනකොට": 6472,
      "සංකල්ප": 6473,
      "පියු": 6474,
      "ටිකේ": 6475,
      "හෝදන": 6476,
      "ජිනීවා": 6477,
      "තිබීම": 6478,
      "වහගන්න": 6479,
      "දේශපාලුවන්": 6480,
      "බැරිව": 6481,
      "දරන": 6482,
      "මත්ද්රව්ය": 6483,
      "උන්වහන්සේ": 6484,
      "කරනවාට": 6485,
      "තීන්": 6486,
      "තීන්දු": 6487,
      "නටන්න": 6488,
      "හිටපල්ලා": 6489,
      "සෙතක්": 6490,
      "පන්සිල්": 6491,
      "චාටර්": 6492,
      "ෙකුගෙන්": 6493,
      "අහවල්": 6494,
      "අහුවෙලා": 6495,
      "බෝල": 6496,
      "මේවායේ": 6497,
      "වර්ණ": 6498,
      "විදියේ": 6499,
      "කඩන": 6500,
      "පහත": 6501,
      "පහදා": 6502,
      "සමාගමක්": 6503,
      "සුවපත්": 6504,
      "පිටුව": 6505,
      "කල්පය": 6506,
      "එයාර්": 6507,
      "ගීම්": 6508,
      "පලමු": 6509,
      "බුදුරජාණන්": 6510,
      "ජනාධිපතිට": 6511,
      "පරමා": 6512,
      "දිනෙන්": 6513,
      "දිනනවා": 6514,
      "දිනකට": 6515,
      "පිළිතුරු": 6516,
      "පෙරහ": 6517,
      "නෙමෙයිනේ": 6518,
      "ලෙසයි": 6519,
      "සීනි": 6520,
      "වෛරය": 6521,
      "තමන්ගේම": 6522,
      "සිදුවූ": 6523,
      "උපයා": 6524,
      "වගකියන්න": 6525,
      "මහත්තයාට": 6526,
      "අල්ලගෙන": 6527,
      "වටින": 6528,
      "චීනෙ": 6529,
      "සිටීමට": 6530,
      "ඉන්දීය": 6531,
      "මහතාණෙනි": 6532,
      "නංගිලා": 6533,
      "කළාට": 6534,
      "දෙවියන්ට": 6535,
      "ශිත": 6536,
      "කොල්ලන්ට": 6537,
      "කාලෙත්": 6538,
      "කාලෙකට": 6539,
      "ඇමතිවරු": 6540,
      "ඉදිරියෙන්": 6541,
      "අන්තිමේ": 6542,
      "රහත්": 6543,
      "අලුත්ම": 6544,
      "කරානම්": 6545,
      "ලැබුණ": 6546,
      "ළඟදීම": 6547,
      "ත්වයෙන්": 6548,
      "තුමාව": 6549,
      "දැම්මොත්": 6550,
      "බල්ලන්ට": 6551,
      "දූෂ": 6552,
      "අලින්ට": 6553,
      "කවදත්": 6554,
      "සූදානම්": 6555,
      "යවනවා": 6556,
      "අනාගතයේ": 6557,
      "150": 6558,
      "විසදන්න": 6559,
      "කෘත": 6560,
      "දන්නෙත්": 6561,
      "බයිසි": 6562,
      "කපනවා": 6563,
      "වැටුපක්": 6564,
      "නිකමට": 6565,
      "ස්ටේ": 6566,
      "ස්ටම්": 6567,
      "අමුතුවෙන්": 6568,
      "ලන්ස්": 6569,
      "වැරැදි": 6570,
      "පෙළපාල": 6571,
      "බැලුවහම": 6572,
      "ගෙදරින්": 6573,
      "ඉහළින්": 6574,
      "හැදුවොත්": 6575,
      "ආගමට": 6576,
      "සාධාරණයක්": 6577,
      "ස්වභාවය": 6578,
      "සෝබන": 6579,
      "කෝටිපතිය": 6580,
      "ලෝකයම": 6581,
      "විනිශ්": 6582,
      "ළමයට": 6583,
      "නියෝජනය": 6584,
      "නියෝජිත": 6585,
      "බනින්න": 6586,
      "ඉන්නවනම්": 6587,
      "වීරයා": 6588,
      "හිතුන": 6589,
      "පැහැදිලිව": 6590,
      "හමුදාපති": 6591,
      "චරිතය": 6592,
      "විඳින්න": 6593,
      "ඉපදුන": 6594,
      "මණ්ඩලයට": 6595,
      "සංස්කෘතියට": 6596,
      "උස්සගෙන": 6597,
      "කවදාහරි": 6598,
      "තමුසෙ": 6599,
      "පෙට්රල්": 6600,
      "අනවශ්ය": 6601,
      "හිඟා": 6602,
      "දිනුවොත්": 6603,
      "දේශපාලුවෝ": 6604,
      "වසංගතය": 6605,
      "වාසියට": 6606,
      "තෑගි": 6607,
      "වලක්වා": 6608,
      "ආදරයක්": 6609,
      "හවසට": 6610,
      "සහයෝගයෙන්": 6611,
      "උද්ඝෝෂණය": 6612,
      "රෝහලට": 6613,
      "නිර්මාණයක්": 6614,
      "කීයද": 6615,
      "විරෝධය": 6616,
      "මාසෙකට": 6617,
      "සමරන්න": 6618,
      "චතුරි": 6619,
      "බඳින්න": 6620,
      "ලන්කාවෙ": 6621,
      "මාෆියාව": 6622,
      "දැනෙන්නේ": 6623,
      "මැරිච්ච": 6624,
      "කුජීත": 6625,
      "ඉස්සෙල්ල": 6626,
      "ඕකුන්": 6627,
      "ආරාධනා": 6628,
      "පින්තූර": 6629,
      "කොටින්ම": 6630,
      "හැමදේටම": 6631,
      "සභාවේ": 6632,
      "සෞඛ්‍ය": 6633,
      "ආසාදිත": 6634,
      "ධම්මික": 6635,
      "කන්නාඩි": 6636,
      "එළවළු": 6637,
      "යථාර්තය": 6638,
      "භුක්ති": 6639,
      "ප්‍රවේශම්": 6640,
      "ජේවීපී": 6641,
      "වෘත්තීය": 6642,
      "හිස්බුල්ලා": 6643,
      "ඔෆිස්": 6644,
      "400": 6645,
      "87": 6646,
      "99": 6647,
      "ංස": 6648,
      "අසන්න": 6649,
      "අදින්න": 6650,
      "අසමත්": 6651,
      "ආශ": 6652,
      "ඇයට": 6653,
      "ඇදුම්": 6654,
      "ඉව": 6655,
      "ඉබේ": 6656,
      "ඉගැන්": 6657,
      "උල්ල": 6658,
      "උගෙ": 6659,
      "උමාලි": 6660,
      "එව": 6661,
      "ඔස්ට්": 6662,
      "කයක්": 6663,
      "කසා": 6664,
      "කනව": 6665,
      "කඩි": 6666,
      "ගඟ": 6667,
      "ගජ": 6668,
      "ගාවට": 6669,
      "ගනියි": 6670,
      "චෙක්": 6671,
      "ජර්": 6672,
      "ඩර්": 6673,
      "ණයට": 6674,
      "තනා": 6675,
      "තඩි": 6676,
      "තණ්": 6677,
      "දර්": 6678,
      "දමන": 6679,
      "නෙන්": 6680,
      "නළු": 6681,
      "පරෙ": 6682,
      "බදි": 6683,
      "බයක්": 6684,
      "බඳු": 6685,
      "බංග": 6686,
      "මති": 6687,
      "මතා": 6688,
      "මතුන්": 6689,
      "යෙකුට": 6690,
      "යද්දි": 6691,
      "රද": 6692,
      "රයා": 6693,
      "රයේ": 6694,
      "රසයි": 6695,
      "ලගෙ": 6696,
      "ලන්ත": 6697,
      "ලන්ඩ": 6698,
      "ලජ්ජ": 6699,
      "වඳ": 6700,
      "වරි": 6701,
      "වමු": 6702,
      "වගන්න": 6703,
      "වටම": 6704,
      "වද්ද": 6705,
      "වරැ": 6706,
      "ශුවර්": 6707,
      "ෂෝ": 6708,
      "සස": 6709,
      "හන": 6710,
      "ැයි": 6711,
      "ේට": 6712,
      "ියන්": 6713,
      "ත්රණ": 6714,
      "ක්ටර්": 6715,
      "ක්වාන්": 6716,
      "යිස්තුව": 6717,
      "ුවම": 6718,
      "නිස": 6719,
      "නිකරු": 6720,
      "නිධන්": 6721,
      "විප්": 6722,
      "විග්": 6723,
      "විකෘති": 6724,
      "ාවී": 6725,
      "රිං": 6726,
      "හිග": 6727,
      "හැඩ": 6728,
      "හැදෙනවා": 6729,
      "හැරෙන්න": 6730,
      "හැගීම්": 6731,
      "පිස්ත": 6732,
      "වෙක්": 6733,
      "වෙන්ට": 6734,
      "වැව": 6735,
      "වැදු": 6736,
      "වැලේ": 6737,
      "මිට්": 6738,
      "මිත්ර": 6739,
      "සිති": 6740,
      "සිකුරු": 6741,
      "පුල්": 6742,
      "පුච්ච": 6743,
      "කොට්": 6744,
      "කොලේ": 6745,
      "කොලොත්": 6746,
      "රුසියාව": 6747,
      "තියපු": 6748,
      "ලිව්": 6749,
      "දෙසැම්බර්": 6750,
      "කින්ද": 6751,
      "කිට්ටු": 6752,
      "නාන": 6753,
      "දික්": 6754,
      "දිලි": 6755,
      "සුහද": 6756,
      "සුසන්": 6757,
      "සුරන්": 6758,
      "සුමන": 6759,
      "සුද්දෙ": 6760,
      "සුදානම්": 6761,
      "සුපිරිය": 6762,
      "වුම": 6763,
      "මෙරට": 6764,
      "මෙතුමාට": 6765,
      "ප්පුල": 6766,
      "ත්තල": 6767,
      "ත්තේ": 6768,
      "ත්තරේ": 6769,
      "දායා": 6770,
      "දානව": 6771,
      "නම්බර්": 6772,
      "දැකීම": 6773,
      "නොදා": 6774,
      "නොවන්න": 6775,
      "නොවීම": 6776,
      "නොදන්නවා": 6777,
      "නොහැකිය": 6778,
      "නොබී": 6779,
      "තායි": 6780,
      "දේපළ": 6781,
      "වැඩු": 6782,
      "වැඩකට": 6783,
      "ගො": 6784,
      "ගෙවල": 6785,
      "න්දෑ": 6786,
      "බලද්දී": 6787,
      "බැන්": 6788,
      "බැස්ස": 6789,
      "බැලිය": 6790,
      "සේකර": 6791,
      "පොලේ": 6792,
      "පොහොර": 6793,
      "පොටෝ": 6794,
      "ඉන්නකන්": 6795,
      "නෙට්": 6796,
      "පැහැ": 6797,
      "ගැනම": 6798,
      "රුවන්ට": 6799,
      "අය්": 6800,
      "ඔබත්": 6801,
      "ඔබලාගේ": 6802,
      "යේම": 6803,
      "ජනයාට": 6804,
      "පාලු": 6805,
      "පාලකයන්": 6806,
      "ලේන්": 6807,
      "දියවන්න": 6808,
      "ගිල්ල": 6809,
      "ලංකාවම": 6810,
      "අවවාද": 6811,
      "අවදාන": 6812,
      "සහරාන්": 6813,
      "නිසානේ": 6814,
      "ප්රයි": 6815,
      "හිතුවෙ": 6816,
      "ගියපු": 6817,
      "වෙන්නැති": 6818,
      "ලැබිල": 6819,
      "ලැයිස්තුව": 6820,
      "ප්‍රබල": 6821,
      "ලේ": 6822,
      "ලෙඩා": 6823,
      "තුවක්": 6824,
      "රැල": 6825,
      "ගාරය": 6826,
      "බොක්ක": 6827,
      "තියෙද්දි": 6828,
      "අරලිය": 6829,
      "අරමුණු": 6830,
      "බිලියන": 6831,
      "කෝන්": 6832,
      "වීසා": 6833,
      "මේකයි": 6834,
      "දන්නවනේ": 6835,
      "කලක": 6836,
      "ම්බෙන්": 6837,
      "නියෙන්": 6838,
      "මන්ඩ": 6839,
      "සංවි": 6840,
      "සංගීත": 6841,
      "හොදක්": 6842,
      "කම්කරු": 6843,
      "පතින්": 6844,
      "සමනල": 6845,
      "ජින්": 6846,
      "පිරිස්": 6847,
      "දහයක්": 6848,
      "දුවන": 6849,
      "දුවන්නේ": 6850,
      "දුවනවා": 6851,
      "දේශපාලනයේ": 6852,
      "දේශපාලකයින්": 6853,
      "පක්ෂයක්": 6854,
      "හදවත්": 6855,
      "තමාට": 6856,
      "කෙනෙක්ද": 6857,
      "උන්ගෙන්": 6858,
      "වැරදු": 6859,
      "ඕනද": 6860,
      "ගෝල්": 6861,
      "තීන්දුවක්": 6862,
      "නටනවා": 6863,
      "වලින්ම": 6864,
      "මීක්": 6865,
      "සේ": 6866,
      "හේවා": 6867,
      "ඔයාගෙ": 6868,
      "ඔයාලගේ": 6869,
      "බෝඩ්": 6870,
      "වර්ෂ": 6871,
      "කීවේ": 6872,
      "කීදෙනෙක්": 6873,
      "කීර්ණ": 6874,
      "කඩෙන්": 6875,
      "කඩවල්": 6876,
      "කලාව": 6877,
      "සමානයි": 6878,
      "ට්ටුවෙන්": 6879,
      "අම්මයි": 6880,
      "අනුන්ගෙ": 6881,
      "සිංහලෙන්": 6882,
      "සිංහලයා": 6883,
      "ඇමරිකානු": 6884,
      "ලෝකයක්": 6885,
      "කාරයට": 6886,
      "පෙනි": 6887,
      "ජනාධිපතිතුමා": 6888,
      "කොමෙන්": 6889,
      "දිනපතා": 6890,
      "මියන්": 6891,
      "ගෙදරක": 6892,
      "එතකන්": 6893,
      "ඇතුන්": 6894,
      "අත්‍ය": 6895,
      "සීයා": 6896,
      "ඉඳගෙන": 6897,
      "දවනවා": 6898,
      "මෝඩයා": 6899,
      "දක්ශ": 6900,
      "සලකන්නේ": 6901,
      "ඉල්ලගෙන": 6902,
      "ඉල්ලීමක්": 6903,
      "............": 6904,
      "මහත්තයට": 6905,
      "සේවකයෙක්": 6906,
      "නෝනලා": 6907,
      "ලීම්": 6908,
      "ලැබේවි": 6909,
      "පෝර්ට්": 6910,
      "2019": 6911,
      "2014": 6912,
      "පුදුමේ": 6913,
      "මූණ": 6914,
      "අයිෆල්": 6915,
      "දෙවියනි": 6916,
      "ගමන්ම": 6917,
      "පයකට": 6918,
      "එකෙක්වත්": 6919,
      "සිද්ධියට": 6920,
      "සිරිසේ": 6921,
      "ගෝඨාගේ": 6922,
      "බොහෝම": 6923,
      "කිවුවට": 6924,
      "ලැබුනු": 6925,
      "කොහෙත්ම": 6926,
      "ලබයි": 6927,
      "දැම්මත්": 6928,
      "පොරවල්": 6929,
      "මැතිවරණයේදී": 6930,
      "රැකගැනීමට": 6931,
      "කාර්යක්ෂ": 6932,
      "සූරා": 6933,
      "විසින්ම": 6934,
      "එළිය": 6935,
      "ස්තුතිය": 6936,
      "බටහි": 6937,
      "මුහුදු": 6938,
      "වෛද්යවරුන්": 6939,
      "අවුස්ස": 6940,
      "පූජා": 6941,
      "සිල්වත්": 6942,
      "කළේය": 6943,
      "ලැබෙන්නෙ": 6944,
      "කල්පනාවෙන්": 6945,
      "මාසයක්": 6946,
      "ජාතිකයෙක්": 6947,
      "දර්ශනයක්": 6948,
      "ඕනෙම": 6949,
      "ලගට": 6950,
      "තක්සේ": 6951,
      "ස්වාමියා": 6952,
      "අන්තවාදීන්": 6953,
      "සෞදි": 6954,
      "නවත්වන්නේ": 6955,
      "ඩොල": 6956,
      "ලාංකිකයෝ": 6957,
      "පදින්න": 6958,
      "පදිංච": 6959,
      "ගැටලුව": 6960,
      "ධර්මයේ": 6961,
      "කෙසේවෙතත්": 6962,
      "විමර්ශ": 6963,
      "ස්වභාවික": 6964,
      "ලියාපදිංචි": 6965,
      "ආන්ඩුවෙ": 6966,
      "කරුවෝ": 6967,
      "විහිළුවක්": 6968,
      "නැගිටි": 6969,
      "එන්පී": 6970,
      "මෑතක": 6971,
      "බිරිද": 6972,
      "2005": 6973,
      "එලවන්න": 6974,
      "අධ්‍යාප": 6975,
      "ප්‍රාදේශීය": 6976,
      "කාගේත්": 6977,
      "පාරිභෝ": 6978,
      "ඩීන්": 6979,
      "වෙළෙන්": 6980,
      "වුවම": 6981,
      "උද්ගෝ": 6982,
      "මිනිසාගේ": 6983,
      "අවුරුද්දට": 6984,
      "අවුරුද්දක්": 6985,
      "ලමයින්ට": 6986,
      "මොළය": 6987,
      "රෝහල්වල": 6988,
      "අවබෝධය": 6989,
      "කෙනෙකුගේ": 6990,
      "අරිනවා": 6991,
      "එහාට": 6992,
      "පත්තුව": 6993,
      "උත්සවය": 6994,
      "ජීවිතේට": 6995,
      "උතුමි": 6996,
      "පියවරක්": 6997,
      "ප්රතිපත්තියක්": 6998,
      "අපායක්": 6999,
      "ඇඳිරිනීතිය": 7000,
      "පැරදිලා": 7001,
      "පොලීසියට": 7002,
      "වසංගතයක්": 7003,
      "අසනී": 7004,
      "උසාවියට": 7005,
      "රස්සාවල්": 7006,
      "උවමනාවක්": 7007,
      "පාතාලය": 7008,
      "අක්කේ": 7009,
      "පරිසරයට": 7010,
      "පුළුවන්ද": 7011,
      "කොමෙන්ට්ස්": 7012,
      "පලාත්": 7013,
      "ෆේස්බුක්": 7014,
      "නාට්‍ය": 7015,
      "උපාධියක්": 7016,
      "ආදායමක්": 7017,
      "හයිවේ": 7018,
      "නිලධාරි": 7019,
      "මධ්යස්ථාන": 7020,
      "මිහිපිට": 7021,
      "වාදියෝ": 7022,
      "වරාය": 7023,
      "එජාපය": 7024,
      "දිසානායක": 7025,
      "තාක්ෂණය": 7026,
      "කොම්පැනි": 7027,
      "භයානකයි": 7028,
      "ටියුබ්": 7029,
      "බෙහෙත": 7030,
      "සාකච්ඡ": 7031,
      "චැනල්": 7032,
      "මාතෘකාව": 7033,
      "සහාය": 7034,
      "වහන්ස": 7035,
      "මැනවි": 7036,
      "ව්‍යාපාරික": 7037,
      "ප්රේමදාස": 7038,
      "ඇහුවේ": 7039,
      "අවදානම": 7040,
      "නිරුවත": 7041,
      "කාරුණික": 7042,
      "අත්යවශ්ය": 7043,
      "ප්රතිශතය": 7044,
      "ඉන්දික": 7045,
      "කොන්ත්‍රාත්": 7046,
      "යන්තම්": 7047,
      "ගෝට": 7048,
      "දැහැමි": 7049,
      "විනිශ්චය": 7050,
      "නිකරුනේ": 7051,
      "113": 7052,
      "26": 7053,
      "48": 7054,
      "55": 7055,
      "අලින්": 7056,
      "අම්බ": 7057,
      "අමර": 7058,
      "අඩිය": 7059,
      "අසන": 7060,
      "අදාය": 7061,
      "අගෙයි": 7062,
      "අවාසනාවන්ත": 7063,
      "ආකර්": 7064,
      "ඇබ්": 7065,
      "ඉමු": 7066,
      "උවත්": 7067,
      "උම්බ": 7068,
      "උදෙසා": 7069,
      "එන්නෙත්": 7070,
      "එහෙන්": 7071,
      "ඔක": 7072,
      "කත": 7073,
      "කෞ": 7074,
      "කඩුව": 7075,
      "කබර": 7076,
      "ඡන": 7077,
      "ජයෙන්": 7078,
      "ජර්ම": 7079,
      "ජංගම": 7080,
      "ටම්": 7081,
      "දත": 7082,
      "දසු": 7083,
      "දනිති": 7084,
      "ධය": 7085,
      "නටම": 7086,
      "නළුව": 7087,
      "නහය": 7088,
      "පලු": 7089,
      "පෙනවා": 7090,
      "පවර": 7091,
      "පහේ": 7092,
      "පලට": 7093,
      "පපුව": 7094,
      "බම්බ": 7095,
      "බණි": 7096,
      "බදාගෙන": 7097,
      "බතල": 7098,
      "භයට": 7099,
      "මෙන": 7100,
      "මකට": 7101,
      "මයට": 7102,
      "මගෙන්": 7103,
      "මණා": 7104,
      "මදැයි": 7105,
      "මංගල්": 7106,
      "යවල": 7107,
      "යෙත්": 7108,
      "රලා": 7109,
      "ලමා": 7110,
      "ලෙනවා": 7111,
      "වවු": 7112,
      "වතෙක්": 7113,
      "ෂය": 7114,
      "සනා": 7115,
      "සෙක්": 7116,
      "සද්දෙ": 7117,
      "හලා": 7118,
      "හලෝ": 7119,
      "හරක": 7120,
      "ළුවට": 7121,
      "ාට": 7122,
      "ීකරණය": 7123,
      "‍ෂ": 7124,
      "‍යක්": 7125,
      "න්චි": 7126,
      "ියු": 7127,
      "ියාව": 7128,
      "වාරම": 7129,
      "වාරයක්": 7130,
      "ස්පා": 7131,
      "තිස්": 7132,
      "තිකා": 7133,
      "තිලක්": 7134,
      "තිබිලා": 7135,
      "නිජ": 7136,
      "නිප": 7137,
      "නිවේ": 7138,
      "නිවැරදියි": 7139,
      "වින්ද": 7140,
      "විත්ව": 7141,
      "විපක්ෂය": 7142,
      "මේෂ්": 7143,
      "කියවා": 7144,
      "කියවනවා": 7145,
      "කියවන්නෙ": 7146,
      "ගේන්නේ": 7147,
      "හිකි": 7148,
      "හිට්": 7149,
      "නැග්": 7150,
      "පිත": 7151,
      "පිවි": 7152,
      "පිණි": 7153,
      "පිට්ට": 7154,
      "වැහි": 7155,
      "වැදිලා": 7156,
      "වැලැක්": 7157,
      "මිලි": 7158,
      "මිනිය": 7159,
      "මිලක්": 7160,
      "මිතුරු": 7161,
      "සිතිය": 7162,
      "සිතින්": 7163,
      "පුර්": 7164,
      "පුත්තු": 7165,
      "පාදු": 7166,
      "පාටි": 7167,
      "පාහර": 7168,
      "කොලු": 7169,
      "කොලබ": 7170,
      "රුක": 7171,
      "කායි": 7172,
      "කාමි": 7173,
      "කාගෙන": 7174,
      "කාඩ්": 7175,
      "කාපට්": 7176,
      "එකමුතු": 7177,
      "දෙමින්": 7178,
      "දෙගොල්ල": 7179,
      "දෙකටම": 7180,
      "දෙගොල්ලො": 7181,
      "කිසියම්": 7182,
      "නාධාර": 7183,
      "දිර්": 7184,
      "දිවුරු": 7185,
      "මුවා": 7186,
      "රටවැසිය": 7187,
      "හොස්": 7188,
      "හොටෙ": 7189,
      "මෙල": 7190,
      "මෙපමණ": 7191,
      "මෙයයි": 7192,
      "ද්වී": 7193,
      "ද්වේශ": 7194,
      "ද්විත්ව": 7195,
      "යාපනේ": 7196,
      "ප්ලෑ": 7197,
      "දාන්ඩ": 7198,
      "සාපේක්ෂ": 7199,
      "අපූ": 7200,
      "අපොයි": 7201,
      "නොයා": 7202,
      "නොවෙන්න": 7203,
      "නොදෙන": 7204,
      "තාජු": 7205,
      "කටේ": 7206,
      "වලම": 7207,
      "වැඩකුත්": 7208,
      "ටිකම": 7209,
      "ල්ලො": 7210,
      "ගන්නෙත්": 7211,
      "ගැඹු": 7212,
      "රාජි": 7213,
      "ගෙනල්ලා": 7214,
      "මොඩ": 7215,
      "මොවු": 7216,
      "නයක": 7217,
      "අපිටම": 7218,
      "බලපං": 7219,
      "බැහි": 7220,
      "බැබල": 7221,
      "නෑති": 7222,
      "නෑදෑ": 7223,
      "පොත්ත": 7224,
      "යුගය": 7225,
      "වේගෙන": 7226,
      "ට්‍ර": 7227,
      "ට්ටියක්": 7228,
      "මහලොකු": 7229,
      "ශ්රේ": 7230,
      "පැද": 7231,
      "පැනව": 7232,
      "පැලැ": 7233,
      "පැහැර": 7234,
      "රුවෙ": 7235,
      "රුවෙන්": 7236,
      "රුවනේ": 7237,
      "ගොනෙක්": 7238,
      "ඔබවහන්සේ": 7239,
      "මැඩ": 7240,
      "රණවිරු": 7241,
      "නවර්": 7242,
      "සියක්": 7243,
      "පාලනයට": 7244,
      "ඇතිවෙන": 7245,
      "නැතිකම": 7246,
      "ගිවි": 7247,
      "ගිරි": 7248,
      "අවදි": 7249,
      "අවස්තා": 7250,
      "සහනාධාර": 7251,
      "කයොත්": 7252,
      "ප්රෙ": 7253,
      "ප්රවාහන": 7254,
      "ප්රමාද": 7255,
      "මිනිස්සුන්": 7256,
      "හිතුවද": 7257,
      "පෙරට": 7258,
      "ප්‍රධා": 7259,
      "කෝ": 7260,
      "හොඳක්": 7261,
      "ජාන": 7262,
      "ජාතක": 7263,
      "කළයුත්තේ": 7264,
      "ච්ච්": 7265,
      "බාගෙට": 7266,
      "පත්රිකාව": 7267,
      "ගාණක්": 7268,
      "අරක": 7269,
      "අදයි": 7270,
      "තේරෙන්න": 7271,
      "බිබී": 7272,
      "දෙනෙකුට": 7273,
      "කෝටියක්": 7274,
      "ගහපන්": 7275,
      "යනුවෙන්": 7276,
      "මේකද": 7277,
      "මතයක්": 7278,
      "කලකට": 7279,
      "නියන්": 7280,
      "තවද": 7281,
      "රෙත්": 7282,
      "සංචාරය": 7283,
      "ඇත්තක්": 7284,
      "ගත්තද": 7285,
      "යන්නද": 7286,
      "ධිපත්": 7287,
      "ගුන": 7288,
      "ජීවී": 7289,
      "ජිවි": 7290,
      "පිරිමිය": 7291,
      "පිරිහිලා": 7292,
      "පිරිමියෙක්": 7293,
      "දහසක්": 7294,
      "තිබුනු": 7295,
      "අනිද්දා": 7296,
      "දේශපාලකයා": 7297,
      "බෙදිලා": 7298,
      "ගෙන්ම": 7299,
      "ගලනවා": 7300,
      "එකක්ද": 7301,
      "හිටන්": 7302,
      "හිටලා": 7303,
      "මීඩියා": 7304,
      "හේවගේ": 7305,
      "චාන්ස්": 7306,
      "අහනවා": 7307,
      "අහුවෙ": 7308,
      "භාග": 7309,
      "සුවි": 7310,
      "කිරීමත්": 7311,
      "කෑව": 7312,
      "විදින්නේ": 7313,
      "පිටට": 7314,
      "මිනිසුනේ": 7315,
      "හරියන": 7316,
      "කාරයෙන්": 7317,
      "එයාපෝට්": 7318,
      "අනුහ": 7319,
      "අනුමානය": 7320,
      "පලතුරු": 7321,
      "බුදුසරණයි": 7322,
      "කාරයින්ට": 7323,
      "මෙයාලගේ": 7324,
      "කරුවා": 7325,
      "කරුනාව": 7326,
      "ජනාධිපතිවරයා": 7327,
      "පරන": 7328,
      "දිනක": 7329,
      "දිනපු": 7330,
      "අතකට": 7331,
      "අතවර": 7332,
      "ඔක්කො": 7333,
      "චිත": 7334,
      "චින්ත": 7335,
      "චිරාත්": 7336,
      "එතනින්": 7337,
      "චන්ද්": 7338,
      "පෙරහැ": 7339,
      "පෙරහැර": 7340,
      "අදහසට": 7341,
      "උනාද": 7342,
      "පුරාව": 7343,
      "සොර": 7344,
      "ඇතුලත්": 7345,
      "සරසවි": 7346,
      "සත්කාර": 7347,
      "දෙකක": 7348,
      "පතට": 7349,
      "හිංස": 7350,
      "හාමුදුරුවො": 7351,
      "ඉවරයක්": 7352,
      "දෙනාටත්": 7353,
      "සිදුවු": 7354,
      "උපසම්": 7355,
      "පසුතැ": 7356,
      "වුනානම්": 7357,
      "යොද": 7358,
      "සුදුස්ස": 7359,
      "නෝන": 7360,
      "නෙවෙයිද": 7361,
      "පෙන්නුවා": 7362,
      "ළමයින්ගේ": 7363,
      "තෙර": 7364,
      "තේරුම": 7365,
      "තුන්වෙනි": 7366,
      "ඉන්දියා": 7367,
      "ඉස්සරවෙලා": 7368,
      "ඉඩක්": 7369,
      "සටන": 7370,
      "අධිකාරිය": 7371,
      "මෙයත්": 7372,
      "පව්ලේ": 7373,
      "ඇමතිලා": 7374,
      "ඇමතිකම": 7375,
      "ඇමතිකම්": 7376,
      "සිරිපා": 7377,
      "බඩුම": 7378,
      "අන්තිමයි": 7379,
      "බොහෝවිට": 7380,
      "ගැනීමෙන්": 7381,
      "පොලිසියෙන්": 7382,
      "ලස්සනද": 7383,
      "හැරීම": 7384,
      "කිවුවේ": 7385,
      "බෞද්ධයෝ": 7386,
      "බෞද්ධයන්": 7387,
      "රනිල්ගෙ": 7388,
      "දඩුවමක්": 7389,
      "ලැබුවා": 7390,
      "විනාශයක්": 7391,
      "දැම්මට": 7392,
      "හේතුවෙන්": 7393,
      "බල්ලෙක්": 7394,
      "පෙන්වන්නේ": 7395,
      "වැටෙන්න": 7396,
      "දෙයකි": 7397,
      "කෙනාගේ": 7398,
      "මැතිවරණයෙන්": 7399,
      "නායකයන්": 7400,
      "කාර්යා": 7401,
      "පනත": 7402,
      "ඉන්ජිනේ": 7403,
      "සෑහෙන්න": 7404,
      "10ක්": 7405,
      "මුහුදට": 7406,
      "විසදුම්": 7407,
      "බදුර්": 7408,
      "නිවන්සුව": 7409,
      "විරුද්ධයි": 7410,
      "ගනිල්ල": 7411,
      "ක්රමවේදයක්": 7412,
      "ප්‍රතිපත්": 7413,
      "කපටිය": 7414,
      "දක්ෂතා": 7415,
      "මගට": 7416,
      "වැටුණු": 7417,
      "අන්තවාදය": 7418,
      "ජනපතිතුමනි": 7419,
      "සුද්දන්ට": 7420,
      "අඩුවක්": 7421,
      "ඇදලා": 7422,
      "අප්පිරිය": 7423,
      "හැදුවත්": 7424,
      "එවුනුත්": 7425,
      "ආන්ඩු": 7426,
      "දයකින්": 7427,
      "ආදරයෙන්": 7428,
      "නිවාඩුව": 7429,
      "පවත්වන්න": 7430,
      "ෂික": 7431,
      "පනික්": 7432,
      "සිටියා": 7433,
      "හෑම": 7434,
      "ඉහලට": 7435,
      "උදේට": 7436,
      "ළමයාගේ": 7437,
      "ඡන්දෙට": 7438,
      "සුරංග": 7439,
      "සමඟයි": 7440,
      "ආදර්ශයට": 7441,
      "විහිළු": 7442,
      "බේරාගන්න": 7443,
      "උදාහර": 7444,
      "කොරලා": 7445,
      "මඟු": 7446,
      "විකුණා": 7447,
      "දැනටත්": 7448,
      "එතනට": 7449,
      "ශීලී": 7450,
      "තර්ජනයක්": 7451,
      "එල්ලන්න": 7452,
      "ත්රිවිධ": 7453,
      "උස්සන්": 7454,
      "ක්රමේ": 7455,
      "එතුමාගේ": 7456,
      "ටොන්": 7457,
      "ෆිල්ම්": 7458,
      "ඉක්මනින්ම": 7459,
      "ආත්මය": 7460,
      "චෝදනාව": 7461,
      "කියනවනේ": 7462,
      "කියනවනම්": 7463,
      "ඇඟට": 7464,
      "ඇඟිලි": 7465,
      "ව්‍යාපාර": 7466,
      "බහින": 7467,
      "ප්රජාතන්ත්රවාදී": 7468,
      "ඉරිසිය": 7469,
      "අධ්යාප": 7470,
      "වලින්ද": 7471,
      "මොහොතක්": 7472,
      "පැවැත්ම": 7473,
      "උඹලගෙ": 7474,
      "හිටින්න": 7475,
      "අධිකරණයේ": 7476,
      "පාඩුවක්": 7477,
      "දෙයියන්ගේ": 7478,
      "පෘති": 7479,
      "වැටිල": 7480,
      "වේගයෙන්": 7481,
      "බුද්ධාගමේ": 7482,
      "ගිහිල්ලත්": 7483,
      "නිහඬ": 7484,
      "පිරිසකට": 7485,
      "ආත්මයක්": 7486,
      "මැරුණත්": 7487,
      "සමාවෙන්න": 7488,
      "ප්‍රියන්ත": 7489,
      "යාලුවෙක්": 7490,
      "බළල්ලු": 7491,
      "බබාලා": 7492,
      "ඇරියොත්": 7493,
      "කාගෙවත්": 7494,
      "සපයන": 7495,
      "කණ්ඩාය": 7496,
      "උගන්වන්න": 7497,
      "ඕස්ට්රේ": 7498,
      "විසඳුම්": 7499,
      "ඇහැට": 7500,
      "ක්රීඩා": 7501,
      "තරාති": 7502,
      "බලපානවා": 7503,
      "දේසපාලන": 7504,
      "බලපත්‍ර": 7505,
      "අනුකම්ප": 7506,
      "අනුකම්පා": 7507,
      "වදිනවා": 7508,
      "සමගියෙන්": 7509,
      "ටියුෂන්": 7510,
      "අඳින": 7511,
      "හැබෑට": 7512,
      "කුජීතයි": 7513,
      "ක්ෂේප": 7514,
      "කුමන්ත්රණ": 7515,
      "මිනීමැරුම්": 7516,
      "ඉන්ටර්": 7517,
      "බවලතුන්": 7518,
      "හෘද": 7519,
      "ක්‍රිකට්": 7520,
      "විරහිත": 7521,
      "නුකූල": 7522,
      "වැසිකිලිය": 7523,
      "අත්දැකීමෙන්": 7524,
      "දිස්ත්රික්ක": 7525,
      "සංදර්ශන": 7526,
      "මහින්දානන්ද": 7527,
      "වික්රමසිංහ": 7528,
      "කොමසාරිස්": 7529,
      "අනුරාධපුර": 7530,
      "අසූචි": 7531,
      "සැලකිලිමත්": 7532,
      "පර්යේෂණ": 7533,
      "අභියෝග": 7534,
      "දුරකථන": 7535,
      "පවිත්රා": 7536,
      "කිතුල්": 7537,
      "රත්තරං": 7538,
      "නිදැල්ලේ": 7539,
      "හුරතල්": 7540,
      "ආයතනයේ": 7541,
      "කන්ටේ": 7542,
      "ස්වයං": 7543,
      "සේවිකාව": 7544,
      "කැබිනට්": 7545,
      "කාර්යක්ෂම": 7546,
      "හොටෙල්": 7547,
      "ංකාර": 7548,
      "අබු": 7549,
      "අප්‍ර": 7550,
      "අසං": 7551,
      "අප්පු": 7552,
      "ආයෝජන": 7553,
      "ආශීර්": 7554,
      "ඇසල": 7555,
      "ඇරිලා": 7556,
      "ඇවිදින්න": 7557,
      "ඉටි": 7558,
      "ඉරණ": 7559,
      "එඩි": 7560,
      "එන්ඩ": 7561,
      "එව්වා": 7562,
      "එලියේ": 7563,
      "ඒම": 7564,
      "ඒමට": 7565,
      "ඔර": 7566,
      "ඔ්": 7567,
      "ඔනි": 7568,
      "ඕකා": 7569,
      "කෙක්": 7570,
      "කසල": 7571,
      "කපෝ": 7572,
      "කපුව": 7573,
      "ගවය": 7574,
      "චමින්ද": 7575,
      "ජැ": 7576,
      "ජූ": 7577,
      "ජනවා": 7578,
      "ජ්ය": 7579,
      "ටැක්": 7580,
      "ටයර්": 7581,
      "ඩබල්": 7582,
      "ණියේ": 7583,
      "ඬි": 7584,
      "තමි": 7585,
      "තට්ට": 7586,
      "දරැ": 7587,
      "දමිල": 7588,
      "දනයට": 7589,
      "නපු": 7590,
      "නමෝ": 7591,
      "පතුර": 7592,
      "පදන": 7593,
      "පගාව": 7594,
      "ප‍්‍ර": 7595,
      "බබ": 7596,
      "බෙන්": 7597,
      "බළු": 7598,
      "බට්ට": 7599,
      "භෞ": 7600,
      "මස": 7601,
      "මලා": 7602,
      "මනේ": 7603,
      "මහෙ": 7604,
      "මද්ය": 7605,
      "මව්පිය": 7606,
      "මධ්‍ය": 7607,
      "මධු": 7608,
      "යය": 7609,
      "යී": 7610,
      "රම්": 7611,
      "රනිල": 7612,
      "රවුම්": 7613,
      "රක්ෂිත": 7614,
      "ලකාව": 7615,
      "ලකී": 7616,
      "ලබ්": 7617,
      "වහි": 7618,
      "වමින්": 7619,
      "වුවේ": 7620,
      "ශෙ": 7621,
      "ශන්": 7622,
      "ෂල්": 7623,
      "සරි": 7624,
      "සත්ත": 7625,
      "සදරුවන්": 7626,
      "හමු": 7627,
      "හීම": 7628,
      "හදුනා": 7629,
      "හරුප": 7630,
      "ළා": 7631,
      "ෆයි": 7632,
      "ැතුව": 7633,
      "ැහේ": 7634,
      "ීන්": 7635,
      "ෙි": 7636,
      "ෙදි": 7637,
      "න්ද්ර": 7638,
      "ක්ලට්": 7639,
      "වාච": 7640,
      "වාරි": 7641,
      "වානේ": 7642,
      "වාර්ථ": 7643,
      "ම්මර": 7644,
      "කරවන්න": 7645,
      "ලාචාර": 7646,
      "ස්ගල": 7647,
      "නිම්": 7648,
      "නිපැ": 7649,
      "නිලිය": 7650,
      "නිවට": 7651,
      "නිතී": 7652,
      "නිළිය": 7653,
      "විකට්": 7654,
      "විත්ර": 7655,
      "ාවන්": 7656,
      "කියමින්": 7657,
      "කියයිද": 7658,
      "කියමනක්": 7659,
      "ගේමක්": 7660,
      "ගේට්ටු": 7661,
      "හිගා": 7662,
      "හික්ම": 7663,
      "තුට්ටු": 7664,
      "තුළින්": 7665,
      "නැර": 7666,
      "හැප්": 7667,
      "පිති": 7668,
      "පිච්ච": 7669,
      "පිල්ලේ": 7670,
      "වෙවී": 7671,
      "මිස්": 7672,
      "සිහ": 7673,
      "සිල්ල": 7674,
      "සිනහ": 7675,
      "දුරා": 7676,
      "දුරේ": 7677,
      "පුස්": 7678,
      "පුතාව": 7679,
      "පුපුර": 7680,
      "පුතුන්": 7681,
      "පාට්": 7682,
      "කොත": 7683,
      "කොත්": 7684,
      "කොකා": 7685,
      "කොල්ලා": 7686,
      "මානු": 7687,
      "මාරයි": 7688,
      "ලිත": 7689,
      "එකල": 7690,
      "එකවර": 7691,
      "දෙහි": 7692,
      "දෙයිද": 7693,
      "නාග": 7694,
      "නාද": 7695,
      "නාල": 7696,
      "නාන්න": 7697,
      "නාත්": 7698,
      "දිදී": 7699,
      "දිවයි": 7700,
      "දිනුම්": 7701,
      "මුන": 7702,
      "සුම": 7703,
      "සුරා": 7704,
      "වුයේ": 7705,
      "ප්පෙ": 7706,
      "කුසල": 7707,
      "කුමාර්": 7708,
      "කුලුන": 7709,
      "දාළ": 7710,
      "සාම්": 7711,
      "සාර්": 7712,
      "ීමත්": 7713,
      "වෙනතුරු": 7714,
      "අපො": 7715,
      "අපටත්": 7716,
      "අපචාර": 7717,
      "නොකිරීම": 7718,
      "නොකරපු": 7719,
      "නොලැබෙන": 7720,
      "නොමරා": 7721,
      "නොම්මර": 7722,
      "තරහක්": 7723,
      "කටට": 7724,
      "වලං": 7725,
      "වත්මන්": 7726,
      "ගැවස": 7727,
      "ගැමුණු": 7728,
      "යටවෙලා": 7729,
      "හෙදිය": 7730,
      "හෙමින්": 7731,
      "හාරයක්": 7732,
      "මොල": 7733,
      "මොරට": 7734,
      "නයත්": 7735,
      "නයකට": 7736,
      "බලං": 7737,
      "බැස": 7738,
      "බැබළ": 7739,
      "ව්වට": 7740,
      "පොලො": 7741,
      "නුවා": 7742,
      "ඉන්නකම්": 7743,
      "නොවෙ": 7744,
      "ට්රි": 7745,
      "ට්ටිය": 7746,
      "මහනුව": 7747,
      "පැදිය": 7748,
      "පැවර": 7749,
      "රියෝ": 7750,
      "ගොම": 7751,
      "ගොට්ට": 7752,
      "ඔබවහන්සේට": 7753,
      "මටයි": 7754,
      "මැකො": 7755,
      "මැරෙයි": 7756,
      "මැරෙන්නෙ": 7757,
      "මැජික්": 7758,
      "රණවිරුවන්": 7759,
      "පාලනේ": 7760,
      "පාලමක්": 7761,
      "පාලකයෙක්": 7762,
      "ඇතිවෙලා": 7763,
      "ඇතිවෙනවා": 7764,
      "නැතිබව": 7765,
      "නැතිවෙයි": 7766,
      "ගිණි": 7767,
      "ලංකාවත්": 7768,
      "අවදානම්": 7769,
      "හුස්ම": 7770,
      "කයෙන්": 7771,
      "කයෙකුට": 7772,
      "නිසාම": 7773,
      "ප්රභ": 7774,
      "ප්රො": 7775,
      "ප්රවාහනය": 7776,
      "ප්රථම": 7777,
      "ප්රවෘත්ති": 7778,
      "ගියපාර": 7779,
      "පේ": 7780,
      "වෙන්නෑ": 7781,
      "ප්‍රමාණය": 7782,
      "ලෙත්": 7783,
      "බාද": 7784,
      "පත්ව": 7785,
      "පත්වූ": 7786,
      "රැපිය": 7787,
      "ගායු": 7788,
      "බොනවා": 7789,
      "බොරැ": 7790,
      "වියට": 7791,
      "වියෝ": 7792,
      "තේරැ": 7793,
      "බිලේ": 7794,
      "කෙනක්": 7795,
      "රීම්": 7796,
      "ගහන්නෙ": 7797,
      "බවය": 7798,
      "දන්නෝ": 7799,
      "කැන්": 7800,
      "කැඩු": 7801,
      "සංගම": 7802,
      "ඇත්තෙ": 7803,
      "ගත්තහම": 7804,
      "බේබි": 7805,
      "වටී": 7806,
      "වටත්": 7807,
      "යන්නට": 7808,
      "හෝදන්න": 7809,
      "හෝමෝ": 7810,
      "ධිත": 7811,
      "ගොඩගන්න": 7812,
      "කාලක්": 7813,
      "කාලයක": 7814,
      "වසන්ත": 7815,
      "මයික්": 7816,
      "ජයන්ත": 7817,
      "දේශපාලක": 7818,
      "දේශපාලකයන්ට": 7819,
      "බැරිවුණා": 7820,
      "ගෙන්වා": 7821,
      "පක්ෂේ": 7822,
      "කෙනෙක්ම": 7823,
      "උන්දැ": 7824,
      "ගලක්": 7825,
      "වැඩිවෙලා": 7826,
      "කතාකරන්නේ": 7827,
      "තීරන": 7828,
      "ණාම": 7829,
      "හේමන්": 7830,
      "ලක්බිම": 7831,
      "පරිපාලන": 7832,
      "පරිත්යා": 7833,
      "චාරි": 7834,
      "රජ්": 7835,
      "අහපු": 7836,
      "බෝධ": 7837,
      "සල්ලිත්": 7838,
      "වර්දනය": 7839,
      "මැතිවර": 7840,
      "මැතිතුමා": 7841,
      "මෙහෙමවත්": 7842,
      "කඩයක්": 7843,
      "පමනි": 7844,
      "තියෙනවාද": 7845,
      "කිව්වම": 7846,
      "සමාගමේ": 7847,
      "සමාගමට": 7848,
      "කෑල්ල": 7849,
      "කෑගහන": 7850,
      "පිටල්": 7851,
      "ඩ්ස්": 7852,
      "අනුන්": 7853,
      "ගීතය": 7854,
      "සිංහලයෙක්": 7855,
      "බෑරි": 7856,
      "ෂ්ඨා": 7857,
      "තත්ත්වයට": 7858,
      "ලෝකෙන්": 7859,
      "ලබාදිය": 7860,
      "ලබාදෙන": 7861,
      "ලබාදීමට": 7862,
      "හොරකමක්": 7863,
      "සම්මා": 7864,
      "ත්මකව": 7865,
      "කාරයි": 7866,
      "කරුනා": 7867,
      "නැත්ද": 7868,
      "පරද්ද": 7869,
      "දිනලා": 7870,
      "ඕනෑතරම්": 7871,
      "ගෙදරම": 7872,
      "අතරට": 7873,
      "අතගාල": 7874,
      "ගියානම්": 7875,
      "එතෙක්": 7876,
      "පිළිකා": 7877,
      "ශාස්": 7878,
      "ශාන්ති": 7879,
      "ඳුම්": 7880,
      "සරම": 7881,
      "සරනයි": 7882,
      "සත්වය": 7883,
      "බුද්ධියක්": 7884,
      "බැහැල": 7885,
      "සීයට": 7886,
      "සින්දු": 7887,
      "එනකන්": 7888,
      "නිදහසක්": 7889,
      "අමාරැ": 7890,
      "දක්වන්නේ": 7891,
      "සලක": 7892,
      "සලසා": 7893,
      "අනූ": 7894,
      "මරල": 7895,
      "සිදුවෙනවා": 7896,
      "උපයන": 7897,
      "බස්වල": 7898,
      "පෙන්නපු": 7899,
      "ගම්මන්පිල": 7900,
      "කාටහරි": 7901,
      "දවසෙ": 7902,
      "දීමත්": 7903,
      "මූල": 7904,
      "මූව": 7905,
      "මූසල": 7906,
      "ජීවත්වෙන": 7907,
      "ඩියු": 7908,
      "පින්වත්": 7909,
      "අපරාදයක්": 7910,
      "ඉඩමක්": 7911,
      "ඉඩකඩ": 7912,
      "කළානම්": 7913,
      "දැක්වීම": 7914,
      "පීරිස්": 7915,
      "මෙයාව": 7916,
      "මිනිසුන්ව": 7917,
      "සිදුකළ": 7918,
      "වගෙම": 7919,
      "සිද්ධි": 7920,
      "ඇමතිතුමා": 7921,
      "සිරිත්": 7922,
      "ගුණවර්ධන": 7923,
      "බෞද්ද": 7924,
      "බඩුත්": 7925,
      "මෙහෙයු": 7926,
      "රහස": 7927,
      "රහන්": 7928,
      "පිලිවෙල": 7929,
      "පිලිවෙලක්": 7930,
      "මනුස්සකම": 7931,
      "දොස්තරල": 7932,
      "ඉදිරිපිට": 7933,
      "රන්ජ": 7934,
      "විනාශයට": 7935,
      "ගනන": 7936,
      "ළඟට": 7937,
      "ලයිසියම්": 7938,
      "කේන්ති": 7939,
      "හරවත්": 7940,
      "ප්රශ්නේ": 7941,
      "හොරුන්": 7942,
      "සම්බන්ධයක්": 7943,
      "100ක්": 7944,
      "පෙන්වන": 7945,
      "වැටෙ": 7946,
      "වැටෙනවා": 7947,
      "මනමාලි": 7948,
      "කවදද": 7949,
      "එ්කයි": 7950,
      "බීජ": 7951,
      "බීපු": 7952,
      "මදිද": 7953,
      "සොයාගන්න": 7954,
      "ඉක්මණින්": 7955,
      "දරුවාගේ": 7956,
      "උපාලි": 7957,
      "උපාසක": 7958,
      "වාසනාවට": 7959,
      "වාසනාවක්": 7960,
      "මාර්ගයෙන්": 7961,
      "බයිට්": 7962,
      "කව්රුවත්": 7963,
      "යැපෙන": 7964,
      "ලාංකීය": 7965,
      "එකාගෙ": 7966,
      "ගෝටාබය": 7967,
      "ස්ටො": 7968,
      "ස්වාමි": 7969,
      "පොලිස්පති": 7970,
      "ලෝකයේම": 7971,
      "උනන්දුවක්": 7972,
      "පුලුවනි": 7973,
      "සිතන්නේ": 7974,
      "සිතමි": 7975,
      "හිටියානම්": 7976,
      "බඩේ": 7977,
      "ක්‍රමයට": 7978,
      "ඉහලින්": 7979,
      "සර්ව": 7980,
      "දායකයෝ": 7981,
      "ආගමන": 7982,
      "තනිව": 7983,
      "විවාහයක්": 7984,
      "පර්මිට්": 7985,
      "පොළේ": 7986,
      "සන්නස්ගල": 7987,
      "පොඩ්ඩ": 7988,
      "සේවාවන්": 7989,
      "අාණ්ඩුව": 7990,
      "ඇරපු": 7991,
      "ආයතනයක්": 7992,
      "වචනයක්": 7993,
      "අමාරුවෙ": 7994,
      "පැනපු": 7995,
      "සැකකරු": 7996,
      "නඩුවේ": 7997,
      "වගකීමෙන්": 7998,
      "පල්ලියේ": 7999,
      "ලැජ්ජාවක්": 8000,
      "මනාපය": 8001,
      "උපරිමයෙන්": 8002,
      "හැසිරෙන්නේ": 8003,
      "ශිෂ්‍ය": 8004,
      "උදාර": 8005,
      "විද්‍යාලය": 8006,
      "ආයුබෝ": 8007,
      "උබලගේ": 8008,
      "දෙවිවරු": 8009,
      "වතුරේ": 8010,
      "වාගේම": 8011,
      "පැතිර": 8012,
      "පැතිරෙන": 8013,
      "අවස්ථාවක": 8014,
      "ඇඳුම": 8015,
      "ඇඳුමක්": 8016,
      "තර්ජනය": 8017,
      "කමෙන්ට්ස්": 8018,
      "ගෙනියන": 8019,
      "අසාර්ථක": 8020,
      "සුන්දරත්වය": 8021,
      "ප්රායෝගික": 8022,
      "අවුරුද්දකට": 8023,
      "මොළයක්": 8024,
      "කාර්යය": 8025,
      "මර්දනය": 8026,
      "කව්රුහරි": 8027,
      "සංවිධාන": 8028,
      "ඉරිසියාව": 8029,
      "විශිෂ්ටයි": 8030,
      "මොහොත": 8031,
      "භූත": 8032,
      "භූමි": 8033,
      "අධිකරණයට": 8034,
      "අපාය": 8035,
      "ඥාන": 8036,
      "අරාබ": 8037,
      "පොලවේ": 8038,
      "පැරදු": 8039,
      "උවමනා": 8040,
      "අකමැත්ත": 8041,
      "කාරණයක්": 8042,
      "ජනාධිපතිවරණය": 8043,
      "විදිහටම": 8044,
      "රංජන්": 8045,
      "පාසලක්": 8046,
      "ඒකාධිපති": 8047,
      "ොත්": 8048,
      "ෆෝම්": 8049,
      "ත්රස්තවාදය": 8050,
      "මචෝ": 8051,
      "පතියෙක්": 8052,
      "දිස්ත්‍රි": 8053,
      "කැමැත්තෙන්": 8054,
      "ජාතීන්ට": 8055,
      "විසඳුමක්": 8056,
      "ගනුදෙනු": 8057,
      "බිල්ඩි": 8058,
      "ගෑනියෙක්": 8059,
      "පොළොවේ": 8060,
      "හැඟීම්": 8061,
      "සතියකට": 8062,
      "ප්‍රවෘත්ති": 8063,
      "ප්‍රවෘත්තිය": 8064,
      "ත්‍රස්තවාදී": 8065,
      "ඉංජිනේරු": 8066,
      "විවේචන": 8067,
      "නිරෝධායනයට": 8068,
      "අර්බුද": 8069,
      "කිසිවෙක්": 8070,
      "ඉස්සෙල්ලා": 8071,
      "සාකච්ඡා": 8072,
      "කුමන්ත්‍ර": 8073,
      "මිලානෝ": 8074,
      "වැඩිහිටියන්": 8075,
      "සනීප": 8076,
      "ගයාන්": 8077,
      "රැකවරණය": 8078,
      "නැගිටලා": 8079,
      "තෑග්ග": 8080,
      "බලාපොරොත්තුව": 8081,
      "පිළියම්": 8082,
      "වැරද්දක්": 8083,
      "සැලකිල්ල": 8084,
      "තරුණයෙක්": 8085,
      "පද්ධතිය": 8086,
      "නොයෙකුත්": 8087,
      "ප්රමාණවත්": 8088,
      "ජාවාරම්": 8089,
      "වකුග": 8090,
      "විනෝද": 8091,
      "මාස්ක්": 8092,
      "රණ්ඩු": 8093,
      "ඩ්රයිවර්": 8094,
      "ගැටබරු": 8095,
      "සෝභිත": 8096,
      "නිහඩව": 8097,
      "ඛේදවාච": 8098,
      "තිබිලත්": 8099,
      "කාලීන": 8100,
      "බ්‍රිතාන්": 8101,
      "සන්තෝෂයි": 8102,
      "ආශාවෙන්": 8103,
      "දර්මය": 8104,
      "පරෙස්ස": 8105,
      "විප්ලව": 8106,
      "විග්නේ": 8107,
      "සුද්දෙක්": 8108,
      "අවදානමක්": 8109,
      "අත්‍යව": 8110,
      "ඇබ්බැහි": 8111,
      "දසුනක්": 8112,
      "28": 8113,
      "අසි": 8114,
      "අබා": 8115,
      "අසල්": 8116,
      "අකල්": 8117,
      "අඹු": 8118,
      "ආසන්න": 8119,
      "ඇක්": 8120,
      "ඇහු": 8121,
      "ඇඩ්": 8122,
      "ඇහුවා": 8123,
      "ඈති": 8124,
      "ඉන්ඩ": 8125,
      "ඉටුව": 8126,
      "ඉතුරුව": 8127,
      "ඊයෙ": 8128,
      "උව": 8129,
      "උස්": 8130,
      "උන්ද": 8131,
      "උජා": 8132,
      "උෂ්": 8133,
      "එල්ලා": 8134,
      "එසැන": 8135,
      "ඔවා": 8136,
      "ඔලිම්": 8137,
      "ඔළුව": 8138,
      "ඔහුව": 8139,
      "කත්": 8140,
      "කුව": 8141,
      "කයේ": 8142,
      "ගළ": 8143,
      "ගලි": 8144,
      "ගලේ": 8145,
      "ගනයේ": 8146,
      "ගසන": 8147,
      "ඟු": 8148,
      "චෙ": 8149,
      "ණෝ": 8150,
      "තයා": 8151,
      "තූන්": 8152,
      "දඹ": 8153,
      "දාව": 8154,
      "දක්ක": 8155,
      "දසුන්": 8156,
      "ධාව": 8157,
      "ධනවත්": 8158,
      "නන්න": 8159,
      "පද්": 8160,
      "බක්": 8161,
      "බෙන": 8162,
      "බද්ධ": 8163,
      "බදින්න": 8164,
      "භවය": 8165,
      "මවා": 8166,
      "මයේ": 8167,
      "යකු": 8168,
      "යළි": 8169,
      "යමින්": 8170,
      "යවන්නේ": 8171,
      "රවි": 8172,
      "රන්නේ": 8173,
      "රසි": 8174,
      "රසා": 8175,
      "ලයා": 8176,
      "ලයෝ": 8177,
      "ලගින්": 8178,
      "වයෙන්": 8179,
      "වඳි": 8180,
      "වස්තුව": 8181,
      "ෂෙ": 8182,
      "සග": 8183,
      "සජි": 8184,
      "සතියේ": 8185,
      "සද්දේ": 8186,
      "සබඳ": 8187,
      "හර්": 8188,
      "හලේ": 8189,
      "හපත්": 8190,
      "හදුන්": 8191,
      "ාා": 8192,
      "ාගෙන": 8193,
      "ැකි": 8194,
      "ිත": 8195,
      "න්ම": 8196,
      "න්ය": 8197,
      "ක්කෝ": 8198,
      "යිස්": 8199,
      "කරවන": 8200,
      "ලාව": 8201,
      "ස්ත්": 8202,
      "ස්වර": 8203,
      "ස්බරි": 8204,
      "තිකය": 8205,
      "විද්ද": 8206,
      "විපතක්": 8207,
      "ාවම": 8208,
      "කියූ": 8209,
      "කියවල": 8210,
      "කියවෙන්නේ": 8211,
      "රිත": 8212,
      "රිසි": 8213,
      "හිඳ": 8214,
      "තුක්": 8215,
      "තුරේ": 8216,
      "හැරිය": 8217,
      "හැඩයි": 8218,
      "වෙි": 8219,
      "වෙල්": 8220,
      "මිණි": 8221,
      "මිදීමට": 8222,
      "සිතු": 8223,
      "සිකව": 8224,
      "සින්නක්": 8225,
      "දුරක්": 8226,
      "දුමිය": 8227,
      "පුප": 8228,
      "පුජා": 8229,
      "පාන්දර": 8230,
      "ෙන්ද": 8231,
      "කොපි": 8232,
      "කොට්ට": 8233,
      "කොණ්ඩ": 8234,
      "රුණු": 8235,
      "මාරාන්": 8236,
      "එකනම්": 8237,
      "එකකුත්": 8238,
      "එකෙත්": 8239,
      "දෙකයි": 8240,
      "දෙපැත්තේ": 8241,
      "දෙදෙනාම": 8242,
      "නාසා": 8243,
      "නාහිර": 8244,
      "නාවික": 8245,
      "දික්ක": 8246,
      "මුර": 8247,
      "මුල්ල": 8248,
      "රටෙත්": 8249,
      "හොදේ": 8250,
      "හොන්ද": 8251,
      "හොම්බෙන්": 8252,
      "මෙලො": 8253,
      "මෙවෙනි": 8254,
      "මෙහෙන්": 8255,
      "මෙතුමිය": 8256,
      "යාමෙන්": 8257,
      "යාලුවා": 8258,
      "ප්තිය": 8259,
      "කුස්ස": 8260,
      "කුඩුව": 8261,
      "කුඩ්": 8262,
      "කුරුණ": 8263,
      "කුලව": 8264,
      "කුරහන්": 8265,
      "දාහ": 8266,
      "දානයක්": 8267,
      "සාමන්": 8268,
      "වෙනකල්": 8269,
      "නොකිය": 8270,
      "නොවිය": 8271,
      "නොහොත්": 8272,
      "තාප්ප": 8273,
      "න්ටයි": 8274,
      "දේපොළ": 8275,
      "කටි": 8276,
      "කටයි": 8277,
      "කටුව": 8278,
      "වලවල්": 8279,
      "වැඩ්": 8280,
      "වැඩී": 8281,
      "ටිකිරි": 8282,
      "ල්ලෙක්": 8283,
      "ෙක්ද": 8284,
      "ගන්නවද": 8285,
      "යටයි": 8286,
      "ගෙවලා": 8287,
      "හෙණ": 8288,
      "හෙට්ටි": 8289,
      "හාත්": 8290,
      "මොක්": 8291,
      "මොක්කු": 8292,
      "මොවුන්ට": 8293,
      "බැල්": 8294,
      "බැද්දර": 8295,
      "නෑම": 8296,
      "පොලව": 8297,
      "පොජ්ජ": 8298,
      "නුම": 8299,
      "යුක්": 8300,
      "බුර": 8301,
      "බුදිය": 8302,
      "නෙති": 8303,
      "ට්ස්": 8304,
      "මහත": 8305,
      "මහන": 8306,
      "මහල්": 8307,
      "මහලු": 8308,
      "මහජනතාවගේ": 8309,
      "මහබැංකු": 8310,
      "මහසෙන්": 8311,
      "ශ්‍රි": 8312,
      "පැමිනි": 8313,
      "ක්ෂා": 8314,
      "අයද": 8315,
      "අයවත්": 8316,
      "අයකරන": 8317,
      "මැස්ස": 8318,
      "නැතිද": 8319,
      "නැතිවෙලා": 8320,
      "ගින්න": 8321,
      "අවොත්": 8322,
      "කයකු": 8323,
      "කයන්ටත්": 8324,
      "ටියෙන්": 8325,
      "ප්රමානය": 8326,
      "ප්රදර්ශනය": 8327,
      "ප්රදායි": 8328,
      "ප්රවුර්": 8329,
      "මිනිස්සුන්ගෙන්": 8330,
      "කියලනේ": 8331,
      "රෝද": 8332,
      "රයක": 8333,
      "රයකට": 8334,
      "වෙන්නට": 8335,
      "වෙන්නද": 8336,
      "ප්‍රී": 8337,
      "ප්‍රමාද": 8338,
      "ලෙට": 8339,
      "කෙස්": 8340,
      "කෙරේ": 8341,
      "යුතුකම්": 8342,
      "යුතුමය": 8343,
      "දේශපල": 8344,
      "කළයුතු": 8345,
      "කළහොත්": 8346,
      "ච්ඡ": 8347,
      "සැරි": 8348,
      "සැකය": 8349,
      "සැමගේ": 8350,
      "සැකයි": 8351,
      "සැමටත්": 8352,
      "සැවො": 8353,
      "බාගයක්": 8354,
      "පත්වීම": 8355,
      "රැවටි": 8356,
      "රැල්ලට": 8357,
      "ගාය": 8358,
      "ගාගෙන": 8359,
      "ඩිල්": 8360,
      "ලියනවා": 8361,
      "ලොරි": 8362,
      "වලටයි": 8363,
      "දෙනකොට": 8364,
      "කෝට්": 8365,
      "දෙන්නයි": 8366,
      "ගහගන්න": 8367,
      "කැඩි": 8368,
      "කැපුව": 8369,
      "නියතයි": 8370,
      "නියමෙට": 8371,
      "රෙජි": 8372,
      "ක්කම්": 8373,
      "ඇත්තට": 8374,
      "ඇත්තෙම": 8375,
      "ගත්තෙත්": 8376,
      "බේදයක්": 8377,
      "ගුම්": 8378,
      "සමූ": 8379,
      "කාලකන්": 8380,
      "කාලයයි": 8381,
      "පිරිසට": 8382,
      "වන්නි": 8383,
      "වහලුන්": 8384,
      "දේශපාලනික": 8385,
      "දේශපාලකයො": 8386,
      "බෙරි": 8387,
      "බෙදන්න": 8388,
      "බැරිවෙන": 8389,
      "කින්වත්": 8390,
      "හදයි": 8391,
      "වැරදීමක්": 8392,
      "ගලවා": 8393,
      "තීරුව": 8394,
      "නටන": 8395,
      "කියන්නම්": 8396,
      "සෙව": 8397,
      "සෙබළු": 8398,
      "හේත්තු": 8399,
      "වදයක්": 8400,
      "පන්කෝ": 8401,
      "පරිපාලනය": 8402,
      "පරිත්‍යා": 8403,
      "ගමනා": 8404,
      "ඉතාලියට": 8405,
      "බෝල්": 8406,
      "බෝර්ඩ්": 8407,
      "අඩුගානේ": 8408,
      "කීව": 8409,
      "කීවත්": 8410,
      "තොගෙ": 8411,
      "කඩලා": 8412,
      "කෑදර": 8413,
      "කෑල්ලක්": 8414,
      "විදිහේ": 8415,
      "පිටරටවල": 8416,
      "පිටරටක": 8417,
      "පිටබැද්දර": 8418,
      "පේන්": 8419,
      "වීමත්": 8420,
      "උඹව": 8421,
      "ලබාගත": 8422,
      "ලබාගත්": 8423,
      "හොරකම": 8424,
      "සම්බා": 8425,
      "පරදි": 8426,
      "පරතර": 8427,
      "අතරින්": 8428,
      "නමස්": 8429,
      "චන්ඩි": 8430,
      "චන්ද්‍ර": 8431,
      "ගොඩක්ම": 8432,
      "පොලිසි": 8433,
      "අදහන": 8434,
      "ශාප": 8435,
      "ගෑන": 8436,
      "සොල්": 8437,
      "සත්යක්": 8438,
      "විශ්‍රා": 8439,
      "පැත්තක්": 8440,
      "බුද්ධියෙන්": 8441,
      "අවශ්යයි": 8442,
      "වහන්සේලාගේ": 8443,
      "යන්ගෙන්": 8444,
      "යන්ත්‍ර": 8445,
      "දවසින්": 8446,
      "අන්ය": 8447,
      "වෛර": 8448,
      "මෝඩයෙක්": 8449,
      "එයත්": 8450,
      "හිංසා": 8451,
      "හිංසාව": 8452,
      "ඉල්ලපු": 8453,
      "ඉල්ලන්නෙ": 8454,
      "සිදුවෙන": 8455,
      "උපදේශ": 8456,
      "උපකරණ": 8457,
      "උපහාරය": 8458,
      "වගක්": 8459,
      ".............": 8460,
      "..............": 8461,
      "යොදවා": 8462,
      "බස්නාහිර": 8463,
      "පෝස්ටර්": 8464,
      "ජීවිතයේ": 8465,
      "චීනයෙන්": 8466,
      "දීමනා": 8467,
      "භාවයෙන්": 8468,
      "තෙන්න": 8469,
      "විනාඩි": 8470,
      "ධ්‍යා": 8471,
      "නිලූ": 8472,
      "ඉඩම": 8473,
      "උන්ටත්": 8474,
      "කවුරුන්": 8475,
      "කැමරා": 8476,
      "පීය": 8477,
      "පුද්ගලයාට": 8478,
      "අධිරාජ්ය": 8479,
      "සමාජගත": 8480,
      "කාලෙක": 8481,
      "සයිකල්": 8482,
      "පිලිගන්නවා": 8483,
      "කාන්තාවකට": 8484,
      "අගයක්": 8485,
      "ප්රතික්ෂේප": 8486,
      "ලැබුණා": 8487,
      "තිබෙනවද": 8488,
      "ළඟම": 8489,
      "හරහට": 8490,
      "හැදිල": 8491,
      "දානකොට": 8492,
      "හිමිපා": 8493,
      "ගරුත්වය": 8494,
      "පිහිටෙන්": 8495,
      "පුතාගේ": 8496,
      "රූපවති": 8497,
      "තාත්තට": 8498,
      "තාත්තල": 8499,
      "අවශ්යතාවය": 8500,
      "සම්බන්ධව": 8501,
      "තෝරන": 8502,
      "හදාගත්ත": 8503,
      "වැටී": 8504,
      "කෙනාම": 8505,
      "අධ්යක්ෂ": 8506,
      "රැකගෙන": 8507,
      "රැකගැනීම": 8508,
      "කාර්මික": 8509,
      "ස්ථානයක්": 8510,
      "සූරිය": 8511,
      "සූත්‍ර": 8512,
      "බංකොලොත්": 8513,
      "නඩුත්": 8514,
      "මුහුද": 8515,
      "වෛද්යවරයෙක්": 8516,
      "අනාගතයේදී": 8517,
      "උඩට": 8518,
      "තිබුනානම්": 8519,
      "රෝගීන්ට": 8520,
      "නිර්දේශ": 8521,
      "දැක්කද": 8522,
      "දැක්කනේ": 8523,
      "රසය": 8524,
      "වාර්තාවක්": 8525,
      "දර්ශන": 8526,
      "වැටුනා": 8527,
      "සැලකිය": 8528,
      "පදාව": 8529,
      "පදනම": 8530,
      "දන්වා": 8531,
      "දන්වන්න": 8532,
      "නවත්වා": 8533,
      "ලන්කන්": 8534,
      "පෙළක්": 8535,
      "අඩුවෙලා": 8536,
      "ක්‍රමයේ": 8537,
      "ලාංකිකයන්ට": 8538,
      "එවුන්ගේ": 8539,
      "ගැටලු": 8540,
      "ගැටළු": 8541,
      "ආගමි": 8542,
      "කණ්නා": 8543,
      "කූඩු": 8544,
      "ඔලුවේ": 8545,
      "යුද්ධයට": 8546,
      "දුන්නාට": 8547,
      "බූරුව": 8548,
      "විමසා": 8549,
      "සදාකාලික": 8550,
      "බුද්ධිමත්ව": 8551,
      "ක්රිඩ": 8552,
      "පිටරටින්": 8553,
      "අැත": 8554,
      "අැම": 8555,
      "තමන්ටම": 8556,
      "ආයතනයට": 8557,
      "ගැලපෙන්නේ": 8558,
      "සංවර්ධනයට": 8559,
      "අමාරුවක්": 8560,
      "ආන්ඩුවේ": 8561,
      "හෑරීම": 8562,
      "බයියෙක්": 8563,
      "ඉහලම": 8564,
      "ටීචර්": 8565,
      "පල්ලට": 8566,
      "ආදර්ශය": 8567,
      "ආදර්ශමත්": 8568,
      "පරාද": 8569,
      "බේරාගත්": 8570,
      "හදිස්සි": 8571,
      "හැසිරෙන්න": 8572,
      "ඉන්නවනෙ": 8573,
      "කාලයේදී": 8574,
      "එහෙනං": 8575,
      "විද්‍යාලයේ": 8576,
      "ආයුර්": 8577,
      "ලිපිනය": 8578,
      "ජීවිතා": 8579,
      "උදවියට": 8580,
      "හීන්": 8581,
      "අවබෝද": 8582,
      "හතරක්": 8583,
      "ඉතාමත්ම": 8584,
      "අල්ලාහ්": 8585,
      "තිබ්බනම්": 8586,
      "මොහුට": 8587,
      "අමාත්‍ය": 8588,
      "අවස්ථාවල": 8589,
      "නඩය": 8590,
      "ලඟදි": 8591,
      "ප්රකාශය": 8592,
      "ඉපදේවා": 8593,
      "මණ්ඩලයක්": 8594,
      "මණ්ඩලයේ": 8595,
      "30ක්": 8596,
      "උස්සන්න": 8597,
      "මිනීමරුවෝ": 8598,
      "උපන්දිනයක්": 8599,
      "බැනලා": 8600,
      "අපේක්ෂා": 8601,
      "ණියෙක්": 8602,
      "ග්‍රහය": 8603,
      "දකුණට": 8604,
      "ලොක්කෝ": 8605,
      "පුවත්පත්": 8606,
      "ඇඟේ": 8607,
      "මෛත්‍රී": 8608,
      "මර්වින්": 8609,
      "බිස්කට්": 8610,
      "පරීක්ෂණයක්": 8611,
      "මාලිගාව": 8612,
      "පරිස්සමින්": 8613,
      "ඩයල්": 8614,
      "දරාගන්න": 8615,
      "උපාධිධා": 8616,
      "ඉවසීම": 8617,
      "සත්තුන්ට": 8618,
      "දෙයියො": 8619,
      "අක්කර": 8620,
      "උත්තමා": 8621,
      "නිෂ්පාද": 8622,
      "තොටුපල": 8623,
      "................................": 8624,
      "අභී": 8625,
      "ඥාති": 8626,
      "හිඟන්න": 8627,
      "සංචාරකයෝ": 8628,
      "යුරෝපා": 8629,
      "යුරෝපය": 8630,
      "ඇයගේ": 8631,
      "අර්ජු": 8632,
      "ගංවතුර": 8633,
      "බැඳලා": 8634,
      "වෙදකම": 8635,
      "නරඹ": 8636,
      "වන්දනාව": 8637,
      "කාරණා": 8638,
      "මුතුකුඩ": 8639,
      "යාලුවෝ": 8640,
      "සියානු": 8641,
      "ජනාධිපතිවරණයට": 8642,
      "ආයෙමත්": 8643,
      "පුළුවන්නේ": 8644,
      "වරයකු": 8645,
      "ගොවියා": 8646,
      "ප්‍රංශය": 8647,
      "බොලව්": 8648,
      "ගණනකට": 8649,
      "සිටීමයි": 8650,
      "පාඨක": 8651,
      "ගෞරවයක්": 8652,
      "ගතිගුණ": 8653,
      "යථාර්ථය": 8654,
      "කණ්ඩායම්": 8655,
      "කණ්ඩායම": 8656,
      "උත්සවයක්": 8657,
      "පිටුපස": 8658,
      "පිලිබඳ": 8659,
      "ආර්තික": 8660,
      "මට්ටමට": 8661,
      "පෙලපාලි": 8662,
      "වහලෙක්": 8663,
      "සම්පුර්ණයෙන්ම": 8664,
      "ශාසනය": 8665,
      "ශාසනයට": 8666,
      "ක්‍රීඩකයන්": 8667,
      "බලපාන": 8668,
      "අනිවාර්යෙන්": 8669,
      "ප්‍රදේශයේ": 8670,
      "වර්තමානයේ": 8671,
      "චතුරිකා": 8672,
      "නාලිකා": 8673,
      "අයුරු": 8674,
      "කතිරය": 8675,
      "කියෙව්වා": 8676,
      "හමාරයි": 8677,
      "ඉපදුනේ": 8678,
      "ගැළපෙන": 8679,
      "බැලීමට": 8680,
      "කිසිවෙකු": 8681,
      "සාක්ෂිය": 8682,
      "බාධක": 8683,
      "සොයුර": 8684,
      "යහපාලනයට": 8685,
      "කනගාටුයි": 8686,
      "ප්‍රජාතන්ත්‍රවාදී": 8687,
      "ඇදුම": 8688,
      "ළගට": 8689,
      "තක්කඩි": 8690,
      "නැවැත්": 8691,
      "මාලාවක්": 8692,
      "ඕස්ට්‍රේලියාවේ": 8693,
      "ප්ලේන්": 8694,
      "කුඹුරු": 8695,
      "නුකූලව": 8696,
      "උරුමයන්": 8697,
      "ඊර්ෂ්‍ය": 8698,
      "කෝච්චියේ": 8699,
      "විද්‍යාව": 8700,
      "දෑවැද්දට": 8701,
      "ව්යාපෘති": 8702,
      "අනාවරණය": 8703,
      "බුද්දිමත්": 8704,
      "තාවකාලිකව": 8705,
      "පේටන්ට්": 8706,
      "උන්නැහේ": 8707,
      "කක්කුස්සි": 8708,
      "රවටන්න": 8709,
      "තුවාල": 8710,
      "හැතිකරේ": 8711,
      "ගොබ්බය": 8712,
      "කම්මැලි": 8713,
      "ශුද්ධ": 8714,
      "හිගන්නෝ": 8715,
      "කොතනද": 8716,
      "කයිවාරු": 8717,
      "අවුරැදු": 8718,
      "ජෝකර්ලා": 8719,
      "ඩයස්පෝ": 8720,
      "සිංගප්පුරුවේ": 8721,
      "ඉංග්‍රීසි": 8722,
      "ලිංගික": 8723,
      "ආරංචියක්": 8724,
      "පම්පෝරි": 8725,
      "රතිඤ්": 8726,
      "හජ්ජි": 8727,
      "ගොඨාභය": 8728,
      "පෙරහරේ": 8729,
      "ඉබේම": 8730,
      "උල්ලං": 8731,
      "රිංගන්න": 8732,
      "සුපිරියි": 8733,
      "දායාද": 8734,
      "තක්සේරු": 8735,
      "ඩොලරය": 8736,
      "පදිංචියට": 8737,
      "අසනීප": 8738,
      "නිවේදන": 8739,
      "පිණිස": 8740,
      "හොස්පිටල්": 8741,
      "සාපේක්ෂව": 8742,
      "ජිවිතේ": 8743,
      "භාග්ය": 8744,
      "කාර්යාලය": 8745,
      "භෞතික": 8746,
      "නොවෙයි": 8747,
      "රජ්ජු": 8748,
      "ඥානසාර": 8749,
      "අත්‍යවශ්‍ය": 8750,
      "ඔලිම්පික්": 8751,
      "සින්නක්කර": 8752,
      "මාරාන්තික": 8753,
      "කුරුණෑ": 8754,
      "සැවොම": 8755,
      "රැවටිලා": 8756,
      "33": 8757,
      "35": 8758,
      "4ක්": 8759,
      "600": 8760,
      "අඳ": 8761,
      "අකි": 8762,
      "අගා": 8763,
      "අසුව": 8764,
      "අසල": 8765,
      "අදුර": 8766,
      "අලයක්": 8767,
      "අධී": 8768,
      "අදුරු": 8769,
      "අමතකයි": 8770,
      "ආබා": 8771,
      "ආචාර": 8772,
      "ආවහම": 8773,
      "ඇඬ": 8774,
      "ඇම්": 8775,
      "ඇහෙන": 8776,
      "ඇල්ලු": 8777,
      "ඇෆ්": 8778,
      "ඇසුරු": 8779,
      "ඇන්ටි": 8780,
      "ඈත්ත": 8781,
      "ඈතක": 8782,
      "ඉදී": 8783,
      "උර": 8784,
      "උල්": 8785,
      "උබත්": 8786,
      "එච්": 8787,
      "එවන්": 8788,
      "ඒකාලේ": 8789,
      "ඔනා": 8790,
      "ඔනෙ": 8791,
      "ඔලු": 8792,
      "ඔවැනි": 8793,
      "ඔට්ටු": 8794,
      "ඔස්තා": 8795,
      "කීමට": 8796,
      "කුවත්": 8797,
      "කතෘ": 8798,
      "කබල්": 8799,
      "ගබ": 8800,
      "ගෘ": 8801,
      "ගර්": 8802,
      "ගලෝ": 8803,
      "ගාවක්": 8804,
      "චනය": 8805,
      "චතුර": 8806,
      "ඥාව": 8807,
      "ටක": 8808,
      "ටවුන්": 8809,
      "ණියක්": 8810,
      "තකා": 8811,
      "තංග": 8812,
      "තප්පුල": 8813,
      "දගෙන": 8814,
      "දඩය": 8815,
      "නඟ": 8816,
      "නන": 8817,
      "නළ": 8818,
      "නත්ත": 8819,
      "නවල": 8820,
      "නන්දෙ": 8821,
      "පනා": 8822,
      "පදා": 8823,
      "පනවා": 8824,
      "පලේ": 8825,
      "පගා": 8826,
      "පලුව": 8827,
      "පදක්": 8828,
      "පටියක්": 8829,
      "පසිඳු": 8830,
      "ඵලය": 8831,
      "ඵලයක්": 8832,
      "බුව": 8833,
      "බන්ද": 8834,
      "බීමට": 8835,
      "බදින": 8836,
      "මවක්": 8837,
      "මල්ලේ": 8838,
      "යතුරු": 8839,
      "යියෝ": 8840,
      "රවටා": 8841,
      "ලභ": 8842,
      "ලනවා": 8843,
      "ලන්තය": 8844,
      "වතිය": 8845,
      "වයට": 8846,
      "වගෙන": 8847,
      "වඩි": 8848,
      "වජි": 8849,
      "වවාගෙන": 8850,
      "වඩේ": 8851,
      "ෂැ": 8852,
      "සෘ": 8853,
      "සසු": 8854,
      "සනු": 8855,
      "සතේ": 8856,
      "හඳ": 8857,
      "හසු": 8858,
      "ැස්": 8859,
      "ැහැ": 8860,
      "ෑන්": 8861,
      "ූව": 8862,
      "ෙමි": 8863,
      "ේරු": 8864,
      "‍ෙ": 8865,
      "න්ග": 8866,
      "න්යා": 8867,
      "න්තියේ": 8868,
      "න්ද්‍ර": 8869,
      "වාසු": 8870,
      "ෙනම්": 8871,
      "කරකර": 8872,
      "කරමුද": 8873,
      "ස්වන්න": 8874,
      "නිමා": 8875,
      "නිරී": 8876,
      "නිරුවත්": 8877,
      "නිසාව": 8878,
      "නිවෙස්": 8879,
      "විකට": 8880,
      "විටත්": 8881,
      "විජිත්": 8882,
      "මේගොල්ල": 8883,
      "රිල": 8884,
      "හිනී": 8885,
      "හිරැ": 8886,
      "නැං": 8887,
      "නැගල": 8888,
      "නැට්ට": 8889,
      "පිහි": 8890,
      "පිලිය": 8891,
      "වෙති": 8892,
      "වෙව්": 8893,
      "වෙලට": 8894,
      "වැවෙන": 8895,
      "මිදෙන්න": 8896,
      "සිලා": 8897,
      "සිරු": 8898,
      "සිසු": 8899,
      "සිස්ටම්": 8900,
      "දුෂ": 8901,
      "දුටුව": 8902,
      "පුජ": 8903,
      "පුත්": 8904,
      "පුටුව": 8905,
      "පාකි": 8906,
      "පාටයි": 8907,
      "පාරටම": 8908,
      "පාපයක්": 8909,
      "රුපවති": 8910,
      "තියෝ": 8911,
      "මාංශ": 8912,
      "මාසික": 8913,
      "කාංච": 8914,
      "ලිහිල්": 8915,
      "එකවත්": 8916,
      "දෙතුන්": 8917,
      "දෙගුණ": 8918,
      "දෙපාරක්": 8919,
      "දෙවනි": 8920,
      "කිං": 8921,
      "දිව්": 8922,
      "දිවිය": 8923,
      "දිනක්": 8924,
      "මෙල්": 8925,
      "මෙගා": 8926,
      "මෙකී": 8927,
      "මෙලොව": 8928,
      "මෙතනින්": 8929,
      "යාමේ": 8930,
      "යාත්‍ර": 8931,
      "යාළුවා": 8932,
      "නේෂන්": 8933,
      "කුකු": 8934,
      "දාස්": 8935,
      "දාමු": 8936,
      "දැල්": 8937,
      "දැමිය": 8938,
      "දැමූ": 8939,
      "සාප": 8940,
      "සාරි": 8941,
      "වෙනු": 8942,
      "වෙනදේ": 8943,
      "වෙනවට": 8944,
      "වෙනකං": 8945,
      "අපනය": 8946,
      "නොවි": 8947,
      "නොදි": 8948,
      "නොවු": 8949,
      "නොතේ": 8950,
      "නොකල": 8951,
      "නොගත්": 8952,
      "නොවූ": 8953,
      "නොවුනොත්": 8954,
      "නොදුන්නොත්": 8955,
      "තාපය": 8956,
      "න්ටම": 8957,
      "තරමි": 8958,
      "තරහා": 8959,
      "දේවත්": 8960,
      "වලටම": 8961,
      "ල්ලෝ": 8962,
      "ල්ලුවට": 8963,
      "ගන්නකොට": 8964,
      "ගැබ්": 8965,
      "රාඡ": 8966,
      "රාගේ": 8967,
      "ගෙව": 8968,
      "හෙලුව": 8969,
      "හෝ": 8970,
      "ගෙනෙන": 8971,
      "හාමි": 8972,
      "මොර": 8973,
      "මොන්": 8974,
      "වගේමයි": 8975,
      "මිනිහෙ": 8976,
      "මිනිසත්": 8977,
      "අපිද": 8978,
      "බලපල්ල": 8979,
      "බැලූ": 8980,
      "සේරටම": 8981,
      "පොන්": 8982,
      "පොල්ල": 8983,
      "යුක්තිය": 8984,
      "ඉන්නෙත්": 8985,
      "බුලත්": 8986,
      "නෙයි": 8987,
      "නෙවෙ": 8988,
      "ට්රැ": 8989,
      "මහරජ": 8990,
      "මහත්ව": 8991,
      "මහමැතිවරණ": 8992,
      "නැහැනෙ": 8993,
      "පැල්": 8994,
      "පැතු": 8995,
      "පැතුම": 8996,
      "ගැනනම්": 8997,
      "ක්ෂක": 8998,
      "ගොට": 8999,
      "ගොනෝ": 9000,
      "අයගෙ": 9001,
      "ඔබෙ": 9002,
      "මැරිය": 9003,
      "මැදිය": 9004,
      "මැරී": 9005,
      "මැතියි": 9006,
      "මැරීම": 9007,
      "මැරෙන්නේ": 9008,
      "රණයට": 9009,
      "ජනයට": 9010,
      "පාලකයන්ගේ": 9011,
      "නැතිවෙන": 9012,
      "දියණිය": 9013,
      "ගින්දර": 9014,
      "කොටන": 9015,
      "කොටන්න": 9016,
      "කොටලා": 9017,
      "කොටුවේ": 9018,
      "හුදෙක්": 9019,
      "සහරා": 9020,
      "ප්රස්": 9021,
      "ප්රජා": 9022,
      "ප්රභා": 9023,
      "හිතනවද": 9024,
      "ගියහම": 9025,
      "රෝගියා": 9026,
      "ඔයගොල්ලෝ": 9027,
      "ලැහැ": 9028,
      "ප්‍රභා": 9029,
      "ලෝ": 9030,
      "තුවක්ක": 9031,
      "කෙරෙන": 9032,
      "ජාතින්": 9033,
      "ජාවාරම": 9034,
      "දේශප්‍රේ": 9035,
      "කළමණා": 9036,
      "සැත": 9037,
      "සැහැ": 9038,
      "සැමිය": 9039,
      "සැපය": 9040,
      "බාස්": 9041,
      "පත්කරලා": 9042,
      "රැල්ලක්": 9043,
      "රැඳී": 9044,
      "අරගල": 9045,
      "වරන්": 9046,
      "වරද්ද": 9047,
      "ලොල්ලො": 9048,
      "දෙනිය": 9049,
      "දෙනයි": 9050,
      "දෙනෙකු": 9051,
      "දෙන්නව": 9052,
      "රීමේ": 9053,
      "බවටත්": 9054,
      "රේල්": 9055,
      "රේවි": 9056,
      "ධාතූන්": 9057,
      "දන්නවාද": 9058,
      "කැද": 9059,
      "කැක්කු": 9060,
      "කලමනා": 9061,
      "රෙකුට": 9062,
      "සංස්ථ": 9063,
      "සංකීර්ණ": 9064,
      "ඇත්තද": 9065,
      "ඇත්තෝ": 9066,
      "හොදද": 9067,
      "යන්නයි": 9068,
      "පියන්": 9069,
      "ඒකනේ": 9070,
      "වයස්": 9071,
      "සමථ": 9072,
      "සමගම": 9073,
      "සමස්ථ": 9074,
      "ගොඩනගන්න": 9075,
      "තැයි": 9076,
      "තැනින්": 9077,
      "ලංකාවේම": 9078,
      "00ක්": 9079,
      "එහෙමද": 9080,
      "එහෙමනම්": 9081,
      "දුවෙක්": 9082,
      "දුවගෙන": 9083,
      "ජයම": 9084,
      "බෙද": 9085,
      "බේ": 9086,
      "බෙලි": 9087,
      "බැරිම": 9088,
      "ගතහොත්": 9089,
      "ගෙන්වන": 9090,
      "හදනව": 9091,
      "හදන්ඩ": 9092,
      "කෙනෙක්ව": 9093,
      "කෙනෙක්ගේ": 9094,
      "උන්ම": 9095,
      "වැරදියට": 9096,
      "ගලවල": 9097,
      "කරනවාද": 9098,
      "වැඩිවන": 9099,
      "වැඩිවෙනවා": 9100,
      "වැඩිකල්": 9101,
      "වැඩිහිටි": 9102,
      "යෝධ": 9103,
      "යෝගි": 9104,
      "මීගම": 9105,
      "නුවක්": 9106,
      "ලක්මාල්": 9107,
      "පරිමාන": 9108,
      "නත්වය": 9109,
      "අහගෙන": 9110,
      "අහංකාර": 9111,
      "බෝතලේ": 9112,
      "වර්ගයක්": 9113,
      "විදියයි": 9114,
      "භාගයක්": 9115,
      "තොප්": 9116,
      "කඩපු": 9117,
      "කඩවල": 9118,
      "කලාද": 9119,
      "කලාකරුවන්": 9120,
      "පහක්": 9121,
      "කෑම්": 9122,
      "කල්ලි": 9123,
      "හරියක්": 9124,
      "කාරයන්": 9125,
      "එයාගෙ": 9126,
      "කියාවි": 9127,
      "කියාගන්න": 9128,
      "අම්බා": 9129,
      "සිංහලයෝ": 9130,
      "සිංහලයන්": 9131,
      "බෑනේ": 9132,
      "ග්ර": 9133,
      "ග්‍ය": 9134,
      "ෂ්‍යා": 9135,
      "පලකරන්න": 9136,
      "පලයං": 9137,
      "මොනම": 9138,
      "ලෝකෙන්ම": 9139,
      "එක්කයි": 9140,
      "මහින්දගෙ": 9141,
      "හොරකන්": 9142,
      "සම්මු": 9143,
      "සම්භා": 9144,
      "සම්පතක්": 9145,
      "සම්භව": 9146,
      "ජනාධිපතිතුමාට": 9147,
      "පරදින": 9148,
      "දිනක්ෂි": 9149,
      "මුදුන්": 9150,
      "ඔක්කම": 9151,
      "චිරං": 9152,
      "සිටිමු": 9153,
      "පිළිගන්නේ": 9154,
      "පෙරල": 9155,
      "නෙමෙයිද": 9156,
      "බ්‍ර": 9157,
      "බ්බු": 9158,
      "පුරවා": 9159,
      "දුන්නද": 9160,
      "දුන්නු": 9161,
      "ඇතුලුව": 9162,
      "ඇතුළුව": 9163,
      "වරුණ": 9164,
      "වරුනි": 9165,
      "දෙකකින්": 9166,
      "දෙකෙන්ම": 9167,
      "අත්වේවා": 9168,
      "අත්වැල්": 9169,
      "වාදයේ": 9170,
      "පැත්තක": 9171,
      "ංගුව": 9172,
      "ලෙසට": 9173,
      "පළම": 9174,
      "පළවෙනි": 9175,
      "සීතල": 9176,
      "උදව": 9177,
      "වහන්සේලාට": 9178,
      "ඉඳලම": 9179,
      "දවමු": 9180,
      "අන්‍ය": 9181,
      "අතරම": 9182,
      "අතරමං": 9183,
      "මෝඩකම": 9184,
      "එනතුරු": 9185,
      "එක්ව": 9186,
      "වුණහම": 9187,
      "ුවේවා": 9188,
      "අනිත්‍ය": 9189,
      "ඉල්ලන්": 9190,
      "ඉල්ලීම": 9191,
      "රොකට්": 9192,
      "එකටයි": 9193,
      "සිදුවීමක්": 9194,
      "වගකීම්": 9195,
      "කට්ටියම": 9196,
      "කට්ටියත්": 9197,
      "තැනකින්": 9198,
      "යොදාගන්න": 9199,
      "තියාගන": 9200,
      "අල්ලන්": 9201,
      "නෝනට": 9202,
      "ලැබේව": 9203,
      "ජ්‍ය": 9204,
      "පෙන්නනවා": 9205,
      "පෝන්": 9206,
      "පෝස්ට්": 9207,
      "ඕකත්": 9208,
      "ඕකෙන්": 9209,
      "ප්‍රශ්නයට": 9210,
      "චීනා": 9211,
      "භාවනාවෙන්": 9212,
      "තිබ්බට": 9213,
      "තේ": 9214,
      "තෙරුම්": 9215,
      "ඔවුන්ව": 9216,
      "හැමෝගෙම": 9217,
      "නායකයින්": 9218,
      "මීටරයක්": 9219,
      "ඉස්සරහා": 9220,
      "පින්කමක්": 9221,
      "නංගී": 9222,
      "තමන්ව": 9223,
      "දැක්කොත්": 9224,
      "නින්දිත": 9225,
      "පුද්ගලයන්ට": 9226,
      "අනාගතේ": 9227,
      "කරලද": 9228,
      "කරලත්": 9229,
      "කොල්ලට": 9230,
      "සමාජයෙන්": 9231,
      "සමාජෙට": 9232,
      "නීතිමය": 9233,
      "කාලෙම": 9234,
      "පවසා": 9235,
      "ඊටපස්සේ": 9236,
      "ගුණේ": 9237,
      "අන්තිමේදී": 9238,
      "ඡන්දෙන්": 9239,
      "ඡන්දයක්": 9240,
      "මෙහෙයවන": 9241,
      "ලෙඩෙක්": 9242,
      "වාදීන්ට": 9243,
      "කාන්තාවට": 9244,
      "අගයන්න": 9245,
      "මංත්රී": 9246,
      "පොලිසියෙ": 9247,
      "කිරිපිටි": 9248,
      "කිවුවෙ": 9249,
      "බෞද්ධයෙක්": 9250,
      "රනිල්ගේ": 9251,
      "අලුතෙන්": 9252,
      "කරාට": 9253,
      "දඩුවමට": 9254,
      "ලැබුනත්": 9255,
      "එවුන්ව": 9256,
      "එවුන්ගෙන්": 9257,
      "ත්වයේ": 9258,
      "ධාරීන්ට": 9259,
      "පුතාලා": 9260,
      "මිනිහව": 9261,
      "අවශ්යතාවයක්": 9262,
      "කැමතිද": 9263,
      "හමුදාවක්": 9264,
      "හමුදාවෙ": 9265,
      "යම්කිසි": 9266,
      "පුරුදුව": 9267,
      "බුද්ධිමතුන්": 9268,
      "ඉන්පසු": 9269,
      "කාලයම": 9270,
      "ඉක්මනටම": 9271,
      "කෙල්ලට": 9272,
      "මුහුදේ": 9273,
      "සියල්ලට": 9274,
      "තයන්ට": 9275,
      "විශ්වාසයි": 9276,
      "අවුට්": 9277,
      "තහනමක්": 9278,
      "පැමින": 9279,
      "අඩෝ": 9280,
      "දන්නෙම": 9281,
      "නිර්මල": 9282,
      "ශක්ති": 9283,
      "ක්රමයට": 9284,
      "දර්ශනා": 9285,
      "යැවීම": 9286,
      "සමහරුන්ගේ": 9287,
      "සැලසුමක්": 9288,
      "දැනුනා": 9289,
      "අමුතුම": 9290,
      "නවත්වලා": 9291,
      "විශාලා": 9292,
      "පුලුවන්නේ": 9293,
      "ඩොක්ටර්": 9294,
      "සුද්දො": 9295,
      "කණුව": 9296,
      "පවතිනවා": 9297,
      "250": 9298,
      "දෑවැ": 9299,
      "ගැටලුවක්": 9300,
      "සර්ප": 9301,
      "අම්මාට": 9302,
      "ධර්මයෙන්": 9303,
      "දුන්නානම්": 9304,
      "නිවාඩුවට": 9305,
      "පොහොට්ටුවෙ": 9306,
      "විවාහක": 9307,
      "විවාහය": 9308,
      "ව්යාප්ත": 9309,
      "ව්යාපාරය": 9310,
      "වේදනාවක්": 9311,
      "සදාචාරය": 9312,
      "විශ්වයේ": 9313,
      "අවසානය": 9314,
      "ඇරල": 9315,
      "ඇරගෙන": 9316,
      "නිවැරදිව": 9317,
      "ලියානු": 9318,
      "මල්ලිලා": 9319,
      "යූඇන්": 9320,
      "යූඑන්පී": 9321,
      "කඩාකප්ප": 9322,
      "බයියන්ගේ": 9323,
      "එහෙව්": 9324,
      "ජොන්": 9325,
      "50ක්": 9326,
      "හයියක්": 9327,
      "විනිවිද": 9328,
      "විනිසුරුව": 9329,
      "වගකීමකි": 9330,
      "කෙලවර": 9331,
      "භාවිතාව": 9332,
      "ජෝක්": 9333,
      "පල්ලෙ": 9334,
      "නියෝගයක්": 9335,
      "පෙරේදා": 9336,
      "යෝජනාව": 9337,
      "යෝජනාවක්": 9338,
      "හදිසිය": 9339,
      "හිතුනේ": 9340,
      "එහිදී": 9341,
      "අපහස": 9342,
      "කොහේවත්": 9343,
      "වතුන්ට": 9344,
      "පහසුයි": 9345,
      "පැතිරීම": 9346,
      "කරුණාවෙන්": 9347,
      "හමුදාවයි": 9348,
      "ආදරේට": 9349,
      "පවුල්වල": 9350,
      "අනිවාර්යයි": 9351,
      "උස්සලා": 9352,
      "කවදාද": 9353,
      "කිරීමේදී": 9354,
      "එ්කත්": 9355,
      "රාවනා": 9356,
      "ෆික්": 9357,
      "කොන්දේසි": 9358,
      "වත්තල": 9359,
      "පැමිණිල්ල": 9360,
      "මාවත": 9361,
      "කාර්යයක්": 9362,
      "දේවාල": 9363,
      "කෙනෙකුත්": 9364,
      "උත්සාහයක්": 9365,
      "ඇඳන්": 9366,
      "නොදත්": 9367,
      "ඉරිදා": 9368,
      "සාමයෙන්": 9369,
      "දේවතාව": 9370,
      "අපහසුතාව": 9371,
      "අපහසුතාවයට": 9372,
      "සීමාවක්": 9373,
      "අස්වැන්න": 9374,
      "මල්ලෙ": 9375,
      "හදවතේ": 9376,
      "ජීවිතේටම": 9377,
      "ගෑනිට": 9378,
      "ඉවසන්න": 9379,
      "ඉවසලා": 9380,
      "තරඟයක්": 9381,
      "අපායට": 9382,
      "බලපෑම": 9383,
      "පිරිසිදුයි": 9384,
      "රත්නපුර": 9385,
      "පාවලා": 9386,
      "ෙනුයි": 9387,
      "විල්පත්තුව": 9388,
      "අයියලා": 9389,
      "පුරවැසියෙක්": 9390,
      "මහත්මිය": 9391,
      "ආරක්ශා": 9392,
      "උරුම": 9393,
      "අවධාරණය": 9394,
      "දේශපාලුවො": 9395,
      "කාලකණ්නි": 9396,
      "අනතුරේ": 9397,
      "ගංජා": 9398,
      "සම්පූර්ණයෙන්": 9399,
      "යහපාලනයේ": 9400,
      "උසාවියේ": 9401,
      "කදුලු": 9402,
      "කොහොල්": 9403,
      "කොහොමටත්": 9404,
      "සැනසි": 9405,
      "සැනසීම": 9406,
      "වගකිවයුතු": 9407,
      "සිරගත": 9408,
      "රැවටෙන": 9409,
      "පරම්පරාවට": 9410,
      "මුංට": 9411,
      "කාර්යාලයේ": 9412,
      "නන්දසේන": 9413,
      "කාරිත්වය": 9414,
      "සන්තක": 9415,
      "පාසලට": 9416,
      "සාකච්ච": 9417,
      "ගොවියෝ": 9418,
      "අනුරංග": 9419,
      "අතුරුදන්": 9420,
      "තමුන්ගෙ": 9421,
      "නගින": 9422,
      "පාඨලී": 9423,
      "පන්සලකට": 9424,
      "අස්සට": 9425,
      "සපයා": 9426,
      "චිත්‍රපටි": 9427,
      "චිත්‍රපටිය": 9428,
      "පරීක්ෂක": 9429,
      "උගන්වන": 9430,
      "උගන්වන්නේ": 9431,
      "දගලනවා": 9432,
      "පිටියේ": 9433,
      "ප්‍රයෝජනයක්": 9434,
      "පරිප්පුයි": 9435,
      "පෙලෙන": 9436,
      "විසඳුම": 9437,
      "සද්දයක්": 9438,
      "සටහන": 9439,
      "කලෙත්": 9440,
      "න්නාන්සේ": 9441,
      "ප්රසිද්ධියේ": 9442,
      "කලිනුත්": 9443,
      "මිහිරිය": 9444,
      "රටෙි": 9445,
      "පුද්ගලයෙකුට": 9446,
      "දෙරණේ": 9447,
      "කිවුවම": 9448,
      "කිවුවලු": 9449,
      "නොවැම්බර්": 9450,
      "පෙනුම": 9451,
      "ඇතුළේ": 9452,
      "ඇතුළත්": 9453,
      "එජාප": 9454,
      "පඩියට": 9455,
      "මහේෂ්": 9456,
      "කදවු": 9457,
      "මගීන්ට": 9458,
      "දෙදෙනාගේ": 9459,
      "නිලදාරීන්": 9460,
      "ඉපදුණු": 9461,
      "අවාසනාවට": 9462,
      "ඇහුවම": 9463,
      "දයාංගම": 9464,
      "නිළධා": 9465,
      "සාදාරන": 9466,
      "තීරනය": 9467,
      "දියුණුවට": 9468,
      "ඕකුන්ට": 9469,
      "විකල්පයක්": 9470,
      "සාක්ෂියක්": 9471,
      "අපතයෝ": 9472,
      "උපවාසය": 9473,
      "ප්‍රජාතන්ත්‍රවාදය": 9474,
      "බිංදුවයි": 9475,
      "24ම": 9476,
      "හඩපට": 9477,
      "එකගයි": 9478,
      "යුගයේ": 9479,
      "රියදුරන්ට": 9480,
      "රේගුවේ": 9481,
      "ගරහන": 9482,
      "ගරහන්න": 9483,
      "චොක්ලට්": 9484,
      "ජපානයේ": 9485,
      "පින්තූ": 9486,
      "සේනානායක": 9487,
      "දිස්ත්රික්": 9488,
      "කථාව": 9489,
      "පාසලකට": 9490,
      "මායිම්": 9491,
      "දශකයේ": 9492,
      "පාපතර": 9493,
      "වැඩපිළිවෙල": 9494,
      "ශ්රමි": 9495,
      "නවතින්නේ": 9496,
      "කැම්පස්": 9497,
      "කැම්පේන්": 9498,
      "සෙනෙහස": 9499,
      "ගණිකාව": 9500,
      "රගපෑ": 9501,
      "සන්දනය": 9502,
      "කිඹුල්ලු": 9503,
      "කළමනාකරණය": 9504,
      "සංඛ්යා": 9505,
      "සොබාදහම": 9506,
      "අමාත්යාංශ": 9507,
      "වළක්වන්න": 9508,
      "අලියෙක්": 9509,
      "ධෛර්ය": 9510,
      "විරිත්": 9511,
      "ස්ථාවර": 9512,
      "චිත්රපට": 9513,
      "ඉල්ලුම": 9514,
      "හරකුන්ට": 9515,
      "‍‍‍‍‍‍‍‍": 9516,
      "අශ්ව": 9517,
      "ආනයන": 9518,
      "ඉත්තෑ": 9519,
      "චේතන": 9520,
      "කණගාටුවට": 9521,
      "ගෙම්බෝ": 9522,
      "හාම්පුතා": 9523,
      "ගොම්මන්පිල": 9524,
      "මැලේසියාව": 9525,
      "පාර්ශවය": 9526,
      "එසැණ": 9527,
      "ෂේප්": 9528,
      "කිසිසේත්": 9529,
      "පරිගණක": 9530,
      "ජෙප්පො": 9531,
      "වනාන්තර": 9532,
      "කොලොන්න": 9533,
      "කුමාරි": 9534,
      "සැලැස්මක්": 9535,
      "දූෂනය": 9536,
      "ගජමන්": 9537,
      "ලන්ඩන්": 9538,
      "සිතිවිලි": 9539,
      "සිරිසේනට": 9540,
      "අදායම": 9541,
      "කායික": 9542,
      "දිවුරුම්": 9543,
      "බැබලේවා": 9544,
      "ගිවිසුම්": 9545,
      "කරුනාවයි": 9546,
      "සුරංගනා": 9547,
      "තරාතිරම": 9548,
      "කපෝති": 9549,
      "ටැක්ස්": 9550,
      "බබෙක්": 9551,
      "නිම්මි": 9552,
      "සිල්ලර": 9553,
      "බැබළේවා": 9554,
      "රැපියල්": 9555,
      "හෝමෝන": 9556,
      "හේමන්ත": 9557,
      "වකුගඩු": 9558,
      "බ්‍රිතාන්‍ය": 9559,
      "දඹදිව": 9560,
      "දික්කසාද": 9561,
      "මොක්කුද": 9562,
      "ප්රදායික": 9563,
      "ආයුර්වේද": 9564,
      "උත්තමාචාරය": 9565,
      "රතිඤ්ඤා": 9566,
      "කුරුණෑගල": 9567,
      "ගබඩා": 9568,
      "ගෘහ": 9569,
      "මහත්වරැ": 9570,
      "කඩාකප්පල්": 9571,
      "08": 9572,
      "6ක්": 9573,
      "6000": 9574,
      "85": 9575,
      "97": 9576,
      "අඛ": 9577,
[...]
